{
    "RT": 201048,
    "the": 182956,
    "to": 178280,
    "a": 148701,
    "#DonaldTrump": 140976,
    "of": 112974,
    "is": 103049,
    "in": 90179,
    "and": 83137,
    "for": 79097,
    "on": 73298,
    "#@@": 69332,
    "#Trump2016": 67745,
    "climate": 62726,
    ":": 62341,
    ".": 60227,
    "I": 59068,
    ",": 55106,
    "\u2026": 52238,
    "s@@": 51227,
    "@@@": 48864,
    "!": 45959,
    "-": 44635,
    "p@@": 44132,
    "d@@": 43396,
    "b@@": 42818,
    "t@@": 42776,
    "\"@@": 42597,
    "S@@": 42387,
    "with": 42078,
    "y@@": 41894,
    "Hillary": 41485,
    "you": 41135,
    "Trump": 41031,
    "H@@": 40722,
    "M@@": 40444,
    "P@@": 39971,
    "F@@": 39766,
    "f@@": 39161,
    "m@@": 39136,
    "C@@": 38385,
    "D@@": 38075,
    "k@@": 38051,
    "B@@": 37642,
    "h@@": 37501,
    "g@@": 37338,
    "T@@": 37290,
    "L@@": 37215,
    "Not": 36181,
    "The": 35761,
    "be": 35645,
    "G@@": 35573,
    "c@@": 35165,
    "@realDonaldTrump": 34716,
    "K@@": 34542,
    "R@@": 34497,
    "w@@": 34425,
    "that": 34404,
    "ing": 33997,
    "Climate": 33817,
    "?": 33368,
    "&amp;": 33070,
    "v@@": 32925,
    "Obama": 32661,
    "J@@": 31959,
    "are": 31778,
    "N@@": 31683,
    "e@@": 31517,
    "Available": 31428,
    "s": 31288,
    "...": 31068,
    "W@@": 30920,
    "i@@": 30902,
    "as": 30881,
    "not": 30811,
    "Clinton": 30780,
    "ed": 30646,
    "n@@": 30380,
    "a@@": 29927,
    "l@@": 29662,
    "z@@": 29550,
    "-@@": 29296,
    "j@@": 29185,
    "it": 29069,
    "E@@": 29028,
    "an": 28980,
    "o@@": 28917,
    "V@@": 28785,
    "_@@": 28770,
    "r@@": 28689,
    "at": 28489,
    "change": 28313,
    "u@@": 28125,
    "Y@@": 27866,
    "y": 27860,
    "O@@": 27668,
    "Donald": 27054,
    "A@@": 26917,
    "will": 26843,
    "A": 26566,
    "4@@": 26555,
    "3@@": 26340,
    "about": 26317,
    "8@@": 25954,
    "Z@@": 25268,
    "2@@": 25257,
    "er": 25103,
    "I@@": 25000,
    "6@@": 24706,
    "7@@": 24630,
    "0@@": 24350,
    "X@@": 24277,
    "q@@": 24266,
    "o": 23892,
    "5@@": 23853,
    "9@@": 23676,
    "x@@": 23590,
    "al@@": 23428,
    "this": 23398,
    "'@@": 23310,
    "1@@": 23247,
    "Q@@": 23009,
    "U@@": 22972,
    "in@@": 22812,
    "an@@": 22728,
    "or": 22640,
    "es": 22477,
    "er@@": 22187,
    "via": 22166,
    "re@@": 21735,
    "by": 21493,
    "\"": 21360,
    "have": 21277,
    "e": 21126,
    "his": 21075,
    "he": 20855,
    "t": 20072,
    "from": 19673,
    "on@@": 19657,
    "all": 19647,
    "en@@": 19366,
    "has": 18943,
    "i": 18664,
    "like": 18653,
    "ar@@": 18290,
    "Barack": 18118,
    "'s": 17997,
    "one": 17959,
    "2": 17517,
    ".@@": 17357,
    "your": 17271,
    "ers": 17229,
    "st@@": 16761,
    "es@@": 16509,
    "un@@": 16444,
    "it@@": 16299,
    "https://t.co/@@": 16290,
    "campaign": 15910,
    "k": 15658,
    "or@@": 15650,
    "support": 15472,
    "you're": 15371,
    "but": 15208,
    "at@@": 15172,
    "'": 15071,
    "Paris": 15053,
    "we": 15042,
    "just": 14975,
    "m": 14895,
    "was": 14744,
    "is@@": 14726,
    "al": 14678,
    "el@@": 14572,
    "#NowPH": 14533,
    "am@@": 14518,
    "ch@@": 14514,
    "S": 14500,
    "s.": 14462,
    "out": 14331,
    "what": 14205,
    "th@@": 14155,
    "our": 14132,
    "who": 14074,
    "n": 14034,
    "(@@": 13915,
    "ad@@": 13838,
    "u": 13794,
    "s,": 13780,
    "4": 13699,
    "p": 13576,
    "us": 13291,
    "le@@": 13250,
    "s:": 13111,
    "ed@@": 13040,
    "ing@@": 12914,
    "d": 12880,
    "more": 12684,
    "up": 12587,
    "my": 12540,
    "can": 12501,
    "do": 12450,
    "co@@": 12410,
    "1": 12357,
    "ic@@": 12210,
    "why": 12143,
    "need": 12031,
    "no": 11999,
    "http://t.co/@@": 11966,
    "z": 11847,
    "as@@": 11823,
    "g": 11820,
    "so": 11775,
    "ag@@": 11702,
    "if": 11572,
    "To": 11558,
    "they": 11533,
    "il@@": 11487,
    "li@@": 11471,
    "jumpman": 11303,
    ")": 11294,
    "Y": 11230,
    "#donaldtrump": 11125,
    "x": 11069,
    "l": 10876,
    "R": 10815,
    "T": 10810,
    "b": 10668,
    "r": 10664,
    "ac@@": 10633,
    "E": 10631,
    "This": 10583,
    "h": 10552,
    "ir@@": 10543,
    "ts": 10476,
    "e.": 10324,
    "feminist": 10298,
    "w": 10281,
    "po": 10278,
    "D": 10269,
    "people": 10251,
    "im@@": 10206,
    "N": 10184,
    "e:": 10117,
    "Re@@": 10104,
    "en": 10088,
    "de@@": 10032,
    "how": 10013,
    "M": 10008,
    "3": 9939,
    "ro@@": 9919,
    "c": 9897,
    "us@@": 9867,
    "her": 9831,
    "U": 9826,
    "says": 9800,
    "and@@": 9761,
    "em@@": 9751,
    "ay@@": 9692,
    "7": 9661,
    "5": 9649,
    "get": 9558,
    "ab@@": 9543,
    "I'm": 9515,
    "President": 9505,
    "don't": 9500,
    "ri@@": 9461,
    "#COP21": 9443,
    "be@@": 9415,
    "8": 9393,
    "take": 9393,
    "Is": 9387,
    "C": 9376,
    "/@@": 9292,
    "@S@@": 9289,
    "over": 9253,
    "6": 9245,
    "ol@@": 9199,
    "ur@@": 9192,
    "We": 9162,
    "F": 9102,
    "O": 9040,
    "than": 8978,
    "id@@": 8949,
    "0": 8948,
    "@C@@": 8922,
    "If": 8904,
    "ate": 8900,
    "ation": 8899,
    "would": 8832,
    "Change": 8830,
    "#B@@": 8795,
    "In": 8739,
    "sh@@": 8703,
    "P": 8648,
    "om@@": 8620,
    "What": 8611,
    "ha@@": 8608,
    "v": 8607,
    "ot@@": 8590,
    "G": 8586,
    "#S@@": 8518,
    "@r_faulkerson:": 8515,
    "#GOP": 8466,
    "me": 8464,
    "You": 8432,
    "when": 8411,
    "feminism": 8272,
    "think": 8242,
    "help": 8233,
    "le": 8169,
    "#tcot": 8152,
    "B": 8137,
    "#M@@": 8114,
    "ent@@": 8111,
    "should": 8091,
    "os@@": 8076,
    "|": 8066,
    "How": 8060,
    "lo@@": 8056,
    "K": 8035,
    "St@@": 7992,
    "f": 7976,
    "a:": 7963,
    "@M@@": 7932,
    "tr@@": 7899,
    "ly": 7875,
    "H": 7861,
    "W": 7855,
    "#C@@": 7843,
    "2015": 7817,
    "et@@": 7776,
    "y:": 7776,
    "GOP": 7762,
    "de": 7754,
    "ic": 7744,
    "9": 7730,
    "him": 7730,
    "op@@": 7701,
    "ul@@": 7676,
    "ambassadors": 7652,
    "ex@@": 7651,
    "make": 7616,
    "@A@@": 7589,
    "woman": 7586,
    "\u2019s": 7529,
    "@m@@": 7526,
    "ak@@": 7512,
    "#MakeAmericaGreatAgain": 7502,
    "#F@@": 7501,
    "know": 7492,
    "se@@": 7489,
    "...@@": 7473,
    "L": 7452,
    "Why": 7431,
    "ig@@": 7379,
    "their": 7349,
    "ne@@": 7344,
    "call": 7308,
    "wrong": 7295,
    "ti@@": 7234,
    "now": 7179,
    "ent": 7163,
    "J": 7134,
    "con@@": 7132,
    "@B@@": 7121,
    "He": 7120,
    "ra@@": 7109,
    "against": 7052,
    "tt@@": 7035,
    "sp@@": 7029,
    "!!": 6993,
    "X": 6985,
    "j": 6983,
    "https://t.c\u2026": 6982,
    "say": 6962,
    "For": 6936,
    "ist": 6933,
    "want": 6913,
    "ist@@": 6884,
    "And": 6865,
    "est@@": 6857,
    "In@@": 6851,
    ",@@": 6798,
    "\u201c@@": 6765,
    "America": 6751,
    "re:": 6727,
    "#P@@": 6643,
    "@R@@": 6620,
    "what's": 6603,
    "\u2018@@": 6596,
    "es.": 6568,
    "ow@@": 6550,
    "Ch@@": 6543,
    "#Trump": 6540,
    "Of": 6531,
    "abortion": 6524,
    "only": 6514,
    "V": 6460,
    "ec@@": 6458,
    "Q": 6449,
    "#climate": 6423,
    "@N@@": 6414,
    "2016": 6384,
    "q": 6371,
    "its": 6353,
    "la@@": 6344,
    "y.": 6323,
    "CNN": 6321,
    "Sh@@": 6317,
    "US": 6306,
    "um@@": 6299,
    "NBC": 6299,
    "#NBC": 6297,
    "Me:": 6291,
    "new": 6265,
    "man": 6259,
    "ee@@": 6244,
    "di@@": 6209,
    "right": 6185,
    "e,": 6167,
    "su@@": 6151,
    "ou@@": 6150,
    "\u2019": 6123,
    "dis@@": 6122,
    "No": 6097,
    "time": 6046,
    "AN@@": 6025,
    ".\"": 6023,
    "disgusting": 6013,
    "#D@@": 6012,
    "$@@": 5994,
    "after": 5977,
    "ap@@": 5976,
    "With": 5963,
    "ant@@": 5942,
    "@j@@": 5939,
    "#H@@": 5932,
    "News": 5930,
    "@D@@": 5930,
    "Z": 5930,
    "it's": 5929,
    "jump": 5911,
    "qu@@": 5877,
    "he@@": 5858,
    "she": 5855,
    "up@@": 5833,
    "y,": 5828,
    "ev@@": 5821,
    "end@@": 5802,
    "IN@@": 5783,
    "ISIS": 5767,
    "best": 5760,
    "because": 5753,
    "#N@@": 5750,
    "#T@@": 5749,
    "am": 5748,
    "Feminist:": 5729,
    "see": 5704,
    "all@@": 5668,
    "jumpma-": 5651,
    "RE@@": 5649,
    "going": 5648,
    "av@@": 5641,
    "being": 5641,
    "love": 5636,
    "#SemST": 5628,
    "youth": 5607,
    "@G@@": 5598,
    "jumptrans": 5559,
    "can't": 5557,
    "@aldenrichards02": 5554,
    "for@@": 5548,
    "iv@@": 5533,
    "pa": 5521,
    "Con@@": 5509,
    "@T@@": 5497,
    "Nation": 5481,
    "It's": 5479,
    "@J@@": 5478,
    "vote": 5473,
    "oc@@": 5461,
    "stop": 5440,
    "ru@@": 5416,
    "On": 5413,
    "world": 5412,
    "go": 5409,
    "@P@@": 5407,
    "la": 5397,
    "@The@@": 5357,
    "said": 5349,
    "own": 5348,
    "ar": 5326,
    "@L@@": 5322,
    "Mexican": 5313,
    "bl@@": 5312,
    "been": 5309,
    "t:": 5297,
    "aw@@": 5276,
    "est": 5234,
    "It": 5232,
    "man@@": 5231,
    "@W@@": 5231,
    "Bernie": 5216,
    "er:": 5212,
    "red": 5212,
    "@s@@": 5203,
    "od@@": 5199,
    "An@@": 5199,
    "ill@@": 5196,
    "@F@@": 5176,
    "pe@@": 5168,
    "ge@@": 5134,
    "#R@@": 5108,
    "gu@@": 5093,
    "pl@@": 5093,
    "of@@": 5089,
    "ass@@": 5078,
    "Just": 5071,
    "ud@@": 5061,
    "https:/\u2026": 5056,
    "ated": 5054,
    "oo@@": 5038,
    "ast@@": 5037,
    "po@@": 5015,
    "age": 5007,
    "So": 5002,
    "https://t.co/L@@": 5002,
    "https:\u2026": 4997,
    "os": 4993,
    "te@@": 4988,
    "#DonaldTrump's": 4985,
    "Feminist": 4983,
    "Un@@": 4965,
    "\u201d": 4955,
    "ate@@": 4952,
    "ve@@": 4937,
    "trend": 4932,
    "bi@@": 4929,
    "ut@@": 4917,
    ";": 4884,
    "pp@@": 4881,
    "way": 4880,
    "Will": 4870,
    "New": 4852,
    "yung": 4844,
    "@d@@": 4838,
    "es:": 4828,
    "natin": 4828,
    "AL@@": 4821,
    "Aldub": 4810,
    "ans": 4809,
    "ci@@": 4808,
    "use": 4806,
    "naman": 4800,
    "USA": 4799,
    "Th@@": 4798,
    "!@@": 4795,
    "si@@": 4774,
    "ers@@": 4758,
    "https://t.co/9@@": 4750,
    "eb@@": 4747,
    "go@@": 4743,
    "ph@@": 4741,
    "women": 4737,
    "back": 4727,
    "AT@@": 4719,
    "good": 4715,
    "https://t.co/y@@": 4712,
    "..": 4707,
    "https://t.co/7@@": 4706,
    "science": 4664,
    "https://t.co/w@@": 4664,
    "Be@@": 4660,
    "ma@@": 4649,
    "The@@": 4634,
    "really": 4627,
    "American": 4627,
    "https://t.co/8@@": 4619,
    "most": 4611,
    "De@@": 4602,
    "tion": 4599,
    "he's": 4597,
    "show": 4596,
    "https://t.co/6@@": 4595,
    "https://t.co/N@@": 4571,
    "comments": 4564,
    "action!": 4562,
    "https://t.co/4@@": 4550,
    "https://t.co/D@@": 4548,
    "could": 4543,
    "able": 4542,
    "%": 4540,
    "se": 4533,
    "Al@@": 4518,
    "https://t.co/5@@": 4515,
    "el": 4504,
    "vi@@": 4488,
    "Ar@@": 4486,
    "do@@": 4474,
    "https://t.co/T@@": 4468,
    "https://t.co/0@@": 4456,
    "next": 4453,
    "ack@@": 4450,
    "doesn't": 4449,
    "ing.": 4448,
    "makes": 4448,
    "some": 4446,
    "!!!": 4435,
    "Sanders": 4430,
    "https://t.co/P@@": 4430,
    "https://t.co/k@@": 4427,
    "https://t.co/J@@": 4425,
    "mo@@": 4411,
    "even": 4409,
    "https://t.co/3@@": 4395,
    "res": 4371,
    "other": 4356,
    "https://t.co/X@@": 4350,
    "https://t.co/K@@": 4349,
    "ah@@": 4342,
    "https://t.co/2@@": 4342,
    "https://t.co/q@@": 4340,
    ":@@": 4337,
    "ot": 4335,
    "#NowPH,": 4334,
    "https://t.co/U@@": 4331,
    "ous": 4327,
    "#L@@": 4326,
    "https://t.co/m@@": 4320,
    "them": 4311,
    "https://t.co/t@@": 4303,
    "@AllScienceGlobe:": 4303,
    "IS@@": 4301,
    "ell@@": 4297,
    "ess@@": 4294,
    "https://t.co/W@@": 4294,
    "ni@@": 4288,
    "pro@@": 4284,
    "https://t.co/1@@": 4271,
    "ind@@": 4269,
    "change.": 4263,
    "https://t.co/Y@@": 4261,
    "https://t.co/x@@": 4257,
    "int@@": 4255,
    "sc@@": 4249,
    "yn@@": 4249,
    "#m@@": 4246,
    "ant": 4235,
    "got": 4232,
    "bo@@": 4230,
    "https://t.co/E@@": 4227,
    "https://t.co/z@@": 4224,
    "https://t.co/G@@": 4219,
    "me@@": 4218,
    "DE@@": 4217,
    "https://t.co/V@@": 4193,
    "does": 4188,
    "ating": 4174,
    "king": 4174,
    "https://t.co/j@@": 4171,
    "https://t.co/v@@": 4170,
    "@K@@": 4168,
    "https://t.co/f@@": 4162,
    "still": 4155,
    "into": 4155,
    "bu@@": 4155,
    "Ex@@": 4152,
    "the@@": 4151,
    "day": 4149,
    "@E@@": 4137,
    "had": 4128,
    "Miss": 4123,
    "https://t.co/C@@": 4115,
    "pr@@": 4110,
    "to@@": 4110,
    "talks": 4101,
    "ard@@": 4100,
    "down": 4097,
    "http\u2026": 4097,
    "#Trump@@": 4097,
    "br@@": 4096,
    "ity": 4094,
    "ho@@": 4094,
    "https://t.co/M@@": 4090,
    "ov@@": 4089,
    "ment": 4087,
    "es,": 4072,
    "Li@@": 4062,
    "https://t.co/H@@": 4059,
    "ve": 4056,
    "illegal": 4052,
    "20@@": 4042,
    "https://t.co/d@@": 4041,
    "https://t.\u2026": 4040,
    "thing": 4036,
    "https://t.co/h@@": 4018,
    "LI@@": 4014,
    "https://t.co/Q@@": 4010,
    "About": 4004,
    "From": 3985,
    "ca@@": 3984,
    "ew@@": 3973,
    "https://t.co/B@@": 3972,
    "Cl@@": 3964,
    "https://t\u2026": 3963,
    "per@@": 3961,
    "gr@@": 3959,
    "https://t.co\u2026": 3959,
    "we@@": 3956,
    "https://t.co/l@@": 3949,
    "too": 3944,
    "ed.": 3940,
    "ob@@": 3938,
    "ce@@": 3934,
    "ea@@": 3933,
    "https://t.co/g@@": 3923,
    "IT@@": 3917,
    "ter@@": 3916,
    "AS@@": 3913,
    "https://t.co/O@@": 3912,
    "ON@@": 3910,
    "wh@@": 3908,
    "htt\u2026": 3908,
    "Trump@@": 3901,
    "https://t.co/p@@": 3900,
    "For@@": 3892,
    "Are": 3889,
    "ties": 3879,
    "ever": 3868,
    "AR@@": 3865,
    "https://t.co/Z@@": 3865,
    "res@@": 3863,
    "https://t.co/b@@": 3861,
    "World": 3859,
    "ine": 3858,
    "ting": 3854,
    "Is@@": 3853,
    "made": 3852,
    "did": 3850,
    "racist": 3840,
    "#UniteBlue": 3837,
    "cr@@": 3835,
    "ons": 3834,
    "global": 3830,
    "must": 3826,
    "believe": 3825,
    "never": 3821,
    "https://t.co/F@@": 3821,
    "ies": 3819,
    "https://t.co/o@@": 3811,
    "En@@": 3809,
    "#A@@": 3799,
    "ME@@": 3796,
    "news": 3791,
    "Pro@@": 3782,
    "https://t.co/I@@": 3782,
    "there": 3780,
    "https://\u2026": 3774,
    "wants": 3771,
    "so@@": 3771,
    "much": 3770,
    "THE": 3765,
    "https://t.co/s@@": 3752,
    "@c@@": 3751,
    "any@@": 3737,
    "cl@@": 3737,
    "https://t.co/S@@": 3737,
    "ass": 3730,
    "https://t.co/R@@": 3722,
    "That": 3719,
    "https://t.co/n@@": 3713,
    "too.": 3712,
    "#G@@": 3692,
    "Mar@@": 3688,
    "Let's": 3688,
    "https://t.co/r@@": 3683,
    "Don't": 3675,
    "https\u2026": 3674,
    "s!": 3669,
    "ay": 3665,
    "#trump2016": 3664,
    "many": 3661,
    "LE@@": 3659,
    "ST@@": 3657,
    "fa@@": 3642,
    "er.": 3639,
    "ub@@": 3634,
    "ts@@": 3634,
    "ism": 3633,
    "https://t.co/u@@": 3629,
    "th": 3627,
    "als": 3623,
    "ke@@": 3622,
    "then": 3609,
    "led": 3604,
    "ang@@": 3604,
    "ted": 3603,
    "ly@@": 3599,
    "Has": 3598,
    "great": 3594,
    "fe@@": 3592,
    "ER@@": 3592,
    "UN@@": 3590,
    "His": 3589,
    "any": 3588,
    "better": 3583,
    "end": 3583,
    "Clinton's": 3580,
    "e!": 3575,
    "He@@": 3574,
    "US@@": 3559,
    "ING": 3551,
    "ff@@": 3529,
    "Pl@@": 3521,
    "on:": 3515,
    "wi@@": 3514,
    "president": 3512,
    "When": 3501,
    "#USA": 3496,
    "ion": 3495,
    "no@@": 3495,
    "com@@": 3484,
    "t.": 3475,
    "fo@@": 3470,
    "#d@@": 3456,
    "it.": 3454,
    "ists": 3454,
    "@k@@": 3453,
    "ber@@": 3449,
    "AM@@": 3447,
    "needs": 3446,
    "ad": 3443,
    "business": 3434,
    "Let": 3433,
    "Jo@@": 3431,
    "#DonaldTrump,": 3426,
    "off": 3420,
    "rice": 3400,
    "#Univision": 3400,
    "white": 3394,
    "come": 3393,
    "#E@@": 3387,
    "Mexico": 3385,
    "our@@": 3374,
    "isn't": 3371,
    "development": 3370,
    "fired": 3369,
    "But": 3361,
    "#p@@": 3358,
    "10@@": 3351,
    "LO@@": 3350,
    "pre@@": 3345,
    "action": 3344,
    "Obama's": 3343,
    "feminism,": 3338,
    "az@@": 3334,
    "ks": 3331,
    "ch": 3329,
    "k:": 3328,
    "After": 3324,
    "#c@@": 3321,
    "Men": 3321,
    "https://t.co/c@@": 3310,
    "iz@@": 3304,
    "#DonaldTrump.": 3303,
    "recognized": 3303,
    "won't": 3297,
    "@feministculture:": 3291,
    "Bill": 3290,
    "#HillaryClinton": 3279,
    "less": 3276,
    "ation@@": 3275,
    "@b@@": 3274,
    "ates": 3272,
    "Rand": 3271,
    "art@@": 3261,
    "Abortion": 3260,
    "Mexicans": 3260,
    "UN": 3257,
    "ick@@": 3256,
    "very": 3247,
    "real": 3234,
    "ance": 3232,
    "#t@@": 3230,
    "Americans": 3224,
    "Ac@@": 3213,
    "Bl@@": 3210,
    "https://t.co/A@@": 3209,
    "s?": 3204,
    "EN@@": 3202,
    "My": 3201,
    "All": 3198,
    "As": 3195,
    "ins@@": 3194,
    "Great": 3192,
    "https://t.co/\u2026": 3181,
    "Qu@@": 3179,
    "ann@@": 3176,
    "IC@@": 3175,
    "were": 3173,
    "1:": 3165,
    "les": 3149,
    "#I@@": 3146,
    "#b@@": 3136,
    "Who": 3136,
    "He's": 3129,
    "fac@@": 3116,
    "ps": 3116,
    "Se@@": 3114,
    "Now": 3111,
    "They": 3111,
    "Climate-friendly": 3109,
    "Be": 3103,
    "presidential": 3100,
    "ter": 3096,
    "ver@@": 3092,
    "hi@@": 3092,
    "@H@@": 3090,
    "OR@@": 3087,
    "https://t.co/4ynF9YoU67": 3084,
    "NOT": 3082,
    "#f@@": 3077,
    "https://t.co/a@@": 3076,
    "summit": 3071,
    "ran@@": 3062,
    "#Hillary2016": 3058,
    "ing:": 3056,
    "ally": 3050,
    "saying": 3049,
    "@t@@": 3045,
    "Co@@": 3044,
    "rac@@": 3039,
    "Trump's": 3039,
    "mar@@": 3036,
    "ens@@": 3036,
    "Am@@": 3034,
    "fi@@": 3033,
    "TO": 3029,
    "https://t.co/i@@": 3028,
    "tting": 3024,
    "candidate": 3021,
    "ence": 3020,
    "keep": 3016,
    "TRUMP": 3015,
    "Clinton:": 3015,
    "..@@": 3012,
    "#J@@": 3008,
    "ox@@": 3006,
    "https://t.co/e@@": 3003,
    "ats": 3001,
    "ty@@": 2998,
    "White": 2998,
    "par@@": 2995,
    "o:": 2995,
    "one@@": 2985,
    "ai@@": 2984,
    "@HillaryClinton": 2965,
    "U.S.": 2964,
    "TH@@": 2962,
    "ef@@": 2962,
    "Do": 2961,
    "ash@@": 2960,
    "Paul": 2959,
    "doing": 2957,
    "men": 2952,
    "work": 2945,
    "#K@@": 2933,
    "Can": 2928,
    "19@@": 2926,
    "\u00a0@@": 2926,
    "ren@@": 2924,
    "Sp@@": 2921,
    "er,": 2917,
    "Me@@": 2917,
    "ris@@": 2914,
    "ach@@": 2912,
    "win": 2911,
    "#W@@": 2903,
    "eg@@": 2896,
    "ust@@": 2878,
    "ik@@": 2878,
    "#DonaldTrump@@": 2876,
    "dec@@": 2872,
    "ations": 2868,
    "Reporter": 2867,
    "#Mexico": 2862,
    "sm@@": 2860,
    "running": 2857,
    "country": 2850,
    "Feminism": 2848,
    "CH@@": 2846,
    "Dis@@": 2844,
    "may": 2843,
    "ine@@": 2842,
    "\u2013": 2833,
    "ans@@": 2829,
    "#climatechange": 2829,
    "ail@@": 2825,
    "rem@@": 2816,
    "Alden": 2810,
    "@g@@": 2803,
    "Mo@@": 2802,
    "ric@@": 2801,
    "Show": 2800,
    "Republican": 2797,
    "ice": 2795,
    "ey@@": 2794,
    "+@@": 2791,
    "real@@": 2790,
    "old": 2789,
    "ny@@": 2786,
    "Ro@@": 2784,
    "are@@": 2778,
    "GO@@": 2774,
    "tim@@": 2768,
    "ther@@": 2767,
    "Le@@": 2765,
    "Obama:": 2763,
    "don@@": 2748,
    "give": 2744,
    "another": 2741,
    "pi@@": 2737,
    "ke": 2734,
    "uc@@": 2731,
    "jo@@": 2730,
    "look": 2730,
    "run": 2729,
    "ide": 2728,
    "au@@": 2727,
    "s\u2026": 2722,
    "where": 2714,
    "Ad@@": 2712,
    "#Obama": 2711,
    "trump": 2706,
    "amp@@": 2703,
    "app@@": 2701,
    "Par@@": 2701,
    "OT@@": 2701,
    "ug@@": 2691,
    "IS": 2680,
    "gi@@": 2677,
    "same": 2674,
    "ors": 2673,
    "Im@@": 2671,
    "here": 2670,
    "#DonaldTrumpforPresident": 2663,
    "ity@@": 2661,
    "a,": 2660,
    "ight@@": 2654,
    "TI@@": 2646,
    "media": 2645,
    "before": 2644,
    "Out": 2627,
    "Global": 2625,
    "lic@@": 2623,
    "Cruz": 2623,
    "these": 2621,
    "Vote": 2621,
    "tell": 2617,
    "bad": 2611,
    "out@@": 2609,
    "uck@@": 2609,
    "@p@@": 2609,
    "Watch": 2606,
    "AC@@": 2606,
    "Tr@@": 2603,
    "id": 2598,
    "awareness.": 2588,
    "ing,": 2586,
    "ain@@": 2584,
    "ia": 2582,
    "RI@@": 2581,
    "FOR": 2581,
    "Pr@@": 2580,
    "tions": 2574,
    "https://t.co/yjKjuzg13A": 2573,
    "ce": 2572,
    "By": 2571,
    "rel@@": 2554,
    "leaders": 2553,
    "17@@": 2552,
    "talking": 2552,
    "back@@": 2552,
    "Presidential": 2551,
    "immigrants": 2551,
    "et": 2548,
    "every": 2546,
    "big": 2546,
    "actually": 2545,
    "den@@": 2543,
    "12@@": 2542,
    "To@@": 2542,
    "ty": 2538,
    "30@@": 2538,
    "ur": 2537,
    "ics": 2534,
    "CO@@": 2533,
    "Te@@": 2531,
    "off@@": 2527,
    "ard": 2525,
    "?@@": 2523,
    "ful": 2522,
    "At": 2522,
    "tu@@": 2518,
    "en:": 2513,
    "@O@@": 2512,
    "stand": 2509,
    "a.": 2495,
    "#MissUSA": 2491,
    "arm@@": 2490,
    "ry@@": 2488,
    "GE@@": 2487,
    "Thank": 2484,
    "those": 2479,
    "money": 2474,
    "ents": 2474,
    "deal": 2474,
    "truth": 2471,
    "....": 2470,
    "PO@@": 2470,
    "Com@@": 2468,
    "gets": 2465,
    "hate": 2461,
    "Gr@@": 2459,
    "ari@@": 2458,
    "ali@@": 2457,
    "#Hillary": 2457,
    "speaking": 2454,
    "HE@@": 2453,
    "shit": 2446,
    "ry": 2446,
    "Summit": 2445,
    "not@@": 2442,
    "ble": 2439,
    "ked": 2438,
    "Bae": 2437,
    "ath@@": 2435,
    "lim@@": 2435,
    "Gu@@": 2433,
    "ering": 2430,
    "red@@": 2430,
    "11@@": 2429,
    "els": 2426,
    "sy@@": 2426,
    "Univision": 2425,
    "#Election2016": 2425,
    "VOTE": 2424,
    "@Macys": 2424,
    "ake@@": 2423,
    "*@@": 2423,
    "calls": 2417,
    "if@@": 2412,
    "On@@": 2405,
    "last": 2402,
    "ure": 2401,
    "Trump:": 2400,
    "let": 2398,
    "Wh@@": 2398,
    "10": 2396,
    "years": 2394,
    "every@@": 2393,
    "BE@@": 2392,
    "Go@@": 2391,
    "No@@": 2390,
    "ck@@": 2388,
    "\"I": 2388,
    "@h@@": 2386,
    "More": 2386,
    "Of@@": 2384,
    "DONALD": 2384,
    "world@@": 2381,
    "leg@@": 2379,
    "talk": 2379,
    "....@@": 2374,
    "News@@": 2372,
    "Cor@@": 2371,
    "anc@@": 2369,
    "life": 2367,
    "#DonaldTrump:": 2366,
    "ism@@": 2364,
    "@I@@": 2364,
    "#p2": 2358,
    "fl@@": 2354,
    "ep@@": 2348,
    "#s@@": 2346,
    "sure": 2340,
    "TV": 2338,
    "chage": 2338,
    "--": 2334,
    "sk@@": 2329,
    "@l@@": 2327,
    "\u00e9@@": 2326,
    "#WakeUpAmerica": 2324,
    "Over": 2324,
    "You're": 2320,
    "put": 2319,
    "Su@@": 2319,
    "Up@@": 2318,
    "RA@@": 2318,
    "ment@@": 2315,
    "RO@@": 2314,
    "State": 2311,
    "t,": 2310,
    "Em@@": 2310,
    "Says": 2310,
    "Good": 2308,
    "ary": 2306,
    "atheist": 2306,
    "SP@@": 2303,
    "ear@@": 2301,
    "first": 2299,
    "Bo@@": 2299,
    "ood@@": 2297,
    "House": 2296,
    "#TRUMP2016": 2296,
    "Illegal": 2294,
    "ss@@": 2293,
    "an:": 2292,
    "you@@": 2284,
    "Ab@@": 2284,
    "my@@": 2283,
    "#atheism": 2278,
    "ess": 2275,
    "que": 2275,
    "An": 2275,
    "lin@@": 2273,
    "now@@": 2272,
    "LL@@": 2272,
    "ous@@": 2270,
    "des@@": 2270,
    "act": 2270,
    "someone": 2268,
    "Get": 2262,
    "head@@": 2259,
    "=@@": 2259,
    "Hillary's": 2258,
    "#Re@@": 2254,
    "tic@@": 2254,
    "We@@": 2252,
    "SE@@": 2251,
    "ign@@": 2251,
    "again": 2249,
    "AB@@": 2249,
    "http://t.co/6@@": 2249,
    "#DumpTrump": 2247,
    "Car@@": 2236,
    "ide@@": 2235,
    "sw@@": 2227,
    "201@@": 2226,
    "ati@@": 2226,
    "\u0131@@": 2225,
    "@YouTube": 2224,
    "that's": 2220,
    "ili@@": 2217,
    "son": 2215,
    "ite": 2213,
    "energy": 2212,
    "0.0": 2212,
    "ste@@": 2210,
    "#h@@": 2209,
    "something": 2206,
    "NE@@": 2206,
    "getting": 2200,
    "Br@@": 2197,
    "cor@@": 2196,
    "plan": 2195,
    "She": 2192,
    "e?": 2191,
    "@nbc": 2191,
    "Obama@@": 2190,
    "oll@@": 2189,
    "hel@@": 2188,
    "sign": 2187,
    "Emails": 2187,
    "um": 2186,
    "@w@@": 2184,
    "by@@": 2181,
    "using": 2181,
    "Clinton@@": 2178,
    "law@@": 2177,
    "?\"": 2170,
    "rap@@": 2164,
    "af@@": 2164,
    "Ne@@": 2163,
    "\u0627@@": 2162,
    "ES@@": 2158,
    "Bush": 2144,
    "so\u2026": 2144,
    "past": 2143,
    "Obama,": 2142,
    "ta@@": 2133,
    "right@@": 2130,
    "IN": 2130,
    "Change:": 2123,
    "att@@": 2118,
    "People": 2117,
    "24@@": 2116,
    "TE@@": 2116,
    "Ag@@": 2116,
    "Give": 2115,
    "point": 2115,
    "coming": 2114,
    "15@@": 2114,
    "Republicans": 2111,
    "&amp;@@": 2111,
    "http://t.co/4@@": 2110,
    "#g@@": 2109,
    "tion@@": 2109,
    "ond@@": 2107,
    "@NowPH_org": 2107,
    "row@@": 2106,
    "re": 2104,
    "Day": 2103,
    "act@@": 2100,
    "OP@@": 2099,
    "Per@@": 2098,
    "making": 2097,
    "w/": 2096,
    "200@@": 2094,
    "immigration": 2091,
    "*": 2090,
    "That's": 2089,
    "say@@": 2086,
    "terrorists": 2086,
    "line": 2084,
    "ings": 2080,
    "care": 2079,
    "#n@@": 2077,
    "anyone": 2076,
    "petition": 2076,
    "didn't": 2075,
    "AK@@": 2075,
    "lead": 2069,
    "aj@@": 2069,
    "Po@@": 2067,
    "called": 2064,
    "ish": 2063,
    "health": 2060,
    "OF": 2060,
    "speech": 2059,
    "I'll": 2057,
    "ong@@": 2055,
    "watch": 2053,
    "http://t.co/M@@": 2052,
    "part": 2048,
    "President@@": 2045,
    "Lo@@": 2045,
    "Only": 2044,
    "ther": 2043,
    "comp@@": 2043,
    "ie@@": 2041,
    "#PJNET": 2040,
    "und@@": 2039,
    "MA@@": 2039,
    "ake": 2036,
    "Di@@": 2034,
    "Or@@": 2032,
    "pa@@": 2032,
    "old@@": 2031,
    "cre@@": 2028,
    "ile": 2027,
    "You@@": 2027,
    "conference": 2027,
    "year": 2027,
    "SU@@": 2026,
    "dr@@": 2024,
    "Her": 2021,
    "ast": 2019,
    "poll@@": 2018,
    "i:": 2017,
    "YOU": 2016,
    "00@@": 2009,
    "age@@": 2008,
    "One": 2008,
    "Muslim": 2007,
    "13@@": 2003,
    "on.": 2001,
    "Do@@": 2001,
    "Have": 1999,
    "fr@@": 1999,
    "vot@@": 1999,
    "s\"": 1997,
    "12": 1997,
    "18@@": 1996,
    "ern@@": 1995,
    "own@@": 1994,
    "Clinton,": 1994,
    "MO@@": 1990,
    "ition": 1989,
    "yl@@": 1989,
    "ion@@": 1988,
    "El": 1987,
    "ia@@": 1985,
    "in:": 1982,
    "RU@@": 1981,
    "Macy's": 1979,
    "guy": 1978,
    "#Climate@@": 1976,
    "hope": 1974,
    "@f@@": 1974,
    "ear": 1973,
    "Fi@@": 1972,
    "http://t.co/R@@": 1972,
    "Your": 1971,
    "Aide": 1971,
    "fu@@": 1966,
    "ed,": 1965,
    "con": 1965,
    "#Benghazi": 1963,
    "http://t.co/9@@": 1963,
    "Donald@@": 1962,
    "Hillary@@": 1961,
    "political": 1959,
    "heard": 1959,
    "working": 1958,
    "Trump,": 1957,
    "video": 1955,
    "AND": 1952,
    "ord@@": 1949,
    "15": 1949,
    "50@@": 1949,
    "pres@@": 1948,
    "gh@@": 1946,
    "vo@@": 1946,
    "\u2014": 1946,
    "HA@@": 1943,
    "women's": 1940,
    "fight": 1939,
    "\u2728": 1939,
    "Please": 1933,
    "politics": 1932,
    "@St@@": 1932,
    "ys@@": 1931,
    "http://t.co/2@@": 1930,
    "@HillaryClinton:": 1929,
    "There": 1927,
    "used": 1925,
    "http://t.co/3@@": 1922,
    "ame": 1920,
    "things": 1914,
    "bread": 1914,
    "ip@@": 1913,
    "ers:": 1911,
    "cha@@": 1910,
    "@n@@": 1910,
    "@FoxNews": 1910,
    "Nov": 1906,
    "cut": 1904,
    "coun@@": 1902,
    "@r@@": 1902,
    "inc@@": 1901,
    "_:": 1897,
    "24": 1897,
    "Benghazi": 1896,
    "http://t.co/T@@": 1895,
    "http://t.co/Q@@": 1895,
    "Ph@@": 1894,
    "OO@@": 1890,
    "CLIMATE": 1890,
    "without": 1889,
    "ash": 1887,
    "remarks": 1886,
    "powerful": 1885,
    "As@@": 1884,
    "also": 1883,
    "aff@@": 1882,
    "ge": 1882,
    "AF@@": 1878,
    "during": 1878,
    ",000": 1877,
    "og@@": 1874,
    "anti-@@": 1870,
    "Party": 1870,
    "@CNN": 1870,
    "Did": 1868,
    "http://t.co/Z@@": 1863,
    "http://t.co/5@@": 1859,
    "http://t.co/0@@": 1858,
    "ill": 1857,
    "gg@@": 1856,
    "part@@": 1854,
    "Trump.": 1854,
    "http://t.co/K@@": 1853,
    "erg@@": 1852,
    "Latino": 1851,
    "ON": 1850,
    "nothing": 1849,
    "OU@@": 1849,
    "!\"": 1848,
    "y!": 1848,
    "http://t.co/p@@": 1848,
    "Apprentice": 1848,
    "can@@": 1847,
    "http://t.co/v@@": 1847,
    "News:": 1843,
    "Climate:": 1842,
    "ron@@": 1841,
    "Iowa": 1841,
    "while": 1838,
    "gonna": 1837,
    "Ha@@": 1837,
    "http://t.co/L@@": 1835,
    "&gt;@@": 1834,
    "Fl@@": 1834,
    "#The@@": 1832,
    "days": 1830,
    "Our": 1829,
    "http://t.co/m@@": 1829,
    "It@@": 1828,
    "iti@@": 1824,
    "ning": 1824,
    "over@@": 1823,
    "Report:": 1822,
    "rebuke": 1821,
    "TV@@": 1821,
    "rec@@": 1820,
    "UK": 1817,
    "il": 1815,
    "ll@@": 1815,
    "During": 1814,
    "ok@@": 1813,
    "study": 1813,
    "lot": 1810,
    "thing@@": 1809,
    "y?": 1809,
    "lam@@": 1809,
    "gl@@": 1808,
    "Go": 1808,
    "tl@@": 1807,
    "#immigration": 1807,
    ".@@@": 1806,
    "http://t.co/7@@": 1806,
    "yeast": 1806,
    "speak": 1805,
    "face": 1803,
    "way@@": 1802,
    "EM@@": 1802,
    "car@@": 1799,
    "race": 1799,
    "which": 1798,
    "VE@@": 1797,
    "pe": 1797,
    "taking": 1796,
    "Ted": 1796,
    "http://t.co/d@@": 1795,
    "vic@@": 1794,
    "ers.": 1794,
    "Fe@@": 1794,
    ")@@": 1794,
    "ds": 1793,
    "ump@@": 1792,
    "Take": 1792,
    "Mc@@": 1792,
    "ici@@": 1791,
    "read": 1788,
    "DO@@": 1785,
    "scientists": 1783,
    "mon@@": 1783,
    "[@@": 1780,
    "ht\u2026": 1780,
    "IL@@": 1778,
    "God": 1777,
    "ir": 1777,
    "#O@@": 1776,
    "new@@": 1775,
    "threat": 1775,
    "ue": 1774,
    "deb@@": 1772,
    "Ho@@": 1772,
    "Does": 1771,
    "SI@@": 1770,
    "candidates": 1770,
    "http://t.co/q@@": 1770,
    "well": 1768,
    "http://t.co/j@@": 1767,
    "war@@": 1764,
    "day@@": 1763,
    "National": 1762,
    "\u2019@@": 1762,
    "#Macys": 1762,
    "log@@": 1761,
    "vers@@": 1760,
    "itch@@": 1759,
    "everyone": 1759,
    "EC@@": 1758,
    "Video": 1757,
    "cu@@": 1755,
    "min@@": 1755,
    "tw@@": 1755,
    "Immigrants": 1755,
    "100@@": 1753,
    "http://t.co/t@@": 1752,
    "ound@@": 1746,
    "acy": 1746,
    "NO@@": 1745,
    "mean": 1744,
    "Attack": 1743,
    "always": 1742,
    "eri@@": 1741,
    "CA@@": 1741,
    "thinks": 1739,
    "spread": 1737,
    "CHANGE": 1736,
    "http://t.co/U@@": 1735,
    "live": 1734,
    "http://t.co/k@@": 1733,
    "3:": 1732,
    "form@@": 1730,
    "ger": 1730,
    "/": 1730,
    "ical": 1729,
    "tweet": 1728,
    "@BlackPplVines:": 1726,
    "rest": 1725,
    "tonight": 1724,
    "ore": 1720,
    "ends": 1719,
    "http://t.co/r@@": 1719,
    "http://t.co/X@@": 1719,
    "dem@@": 1718,
    "with@@": 1717,
    "http://t.co/f@@": 1717,
    "http://t.co/J@@": 1716,
    "Science": 1715,
    "bring": 1714,
    "USA@@": 1714,
    "ack": 1712,
    "http://t.co/b@@": 1710,
    "anything": 1709,
    "http://t.co/8@@": 1709,
    "having": 1708,
    "FU@@": 1708,
    "http://t.co/g@@": 1708,
    "sur@@": 1707,
    "until": 1706,
    "might": 1706,
    "sl@@": 1706,
    "latest": 1706,
    "Christi@@": 1703,
    "http://t.co/n@@": 1703,
    "#Climate": 1702,
    "WH@@": 1702,
    "year@@": 1700,
    "io@@": 1700,
    "UK@@": 1699,
    "ase": 1697,
    "99@@": 1697,
    "Snow:": 1697,
    "rest@@": 1696,
    "@": 1696,
    "Precip:": 1695,
    "ect@@": 1694,
    "vs": 1694,
    "#JebBush": 1694,
    "that@@": 1691,
    "CC@@": 1690,
    "hard@@": 1689,
    "Ob@@": 1689,
    "\ud83c\uddfa\ud83c\uddf8": 1689,
    "So@@": 1687,
    "sha@@": 1687,
    "enc@@": 1685,
    "Pe@@": 1684,
    "meet": 1684,
    "Hey": 1684,
    "Aw@@": 1683,
    "Mr.": 1683,
    "#feminism": 1682,
    "fin@@": 1681,
    "ire": 1680,
    "ye@@": 1680,
    "@weknowwhatsbest:": 1679,
    "voice": 1678,
    "http://t.co/Y@@": 1678,
    "Thanks": 1676,
    "Il@@": 1676,
    "ref@@": 1675,
    "week": 1674,
    "ement": 1673,
    "mor@@": 1673,
    "him@@": 1673,
    "thought": 1672,
    "Support": 1672,
    "http://t.co/G@@": 1672,
    "agree": 1671,
    "def@@": 1671,
    "today": 1670,
    "ying": 1670,
    "set": 1667,
    "ish@@": 1667,
    "hair": 1667,
    "Women": 1665,
    "#ClimateChange": 1665,
    "ree@@": 1663,
    "ite@@": 1663,
    "fil@@": 1662,
    "WO@@": 1662,
    "Was": 1662,
    "work@@": 1661,
    "_": 1661,
    "http://t.co/E@@": 1661,
    "Rap@@": 1661,
    "done": 1659,
    "change?": 1658,
    "Bu@@": 1657,
    "ver": 1654,
    "w/@@": 1654,
    "zz@@": 1654,
    "op": 1653,
    "@Re@@": 1652,
    "http://t.co/C@@": 1649,
    "policy": 1648,
    "Us@@": 1646,
    "ling": 1645,
    "ely": 1644,
    "on,": 1643,
    "http://t.co/x@@": 1643,
    "start": 1641,
    "SO@@": 1640,
    "Love": 1639,
    "--@@": 1639,
    "RT@@": 1639,
    "ID@@": 1638,
    "ble@@": 1637,
    "ise": 1637,
    "25@@": 1636,
    "countries": 1635,
    "them@@": 1634,
    "14@@": 1633,
    "law": 1633,
    "@GOP": 1633,
    "Dr@@": 1632,
    "government": 1632,
    "FI@@": 1630,
    "emails": 1630,
    "hear": 1629,
    "]": 1626,
    "Action": 1626,
    "y_@@": 1625,
    "NY@@": 1625,
    "Tur@@": 1623,
    "debate": 1622,
    "a\u2026": 1622,
    "vis@@": 1621,
    "http://t.co/z@@": 1620,
    "un": 1619,
    "EE@@": 1619,
    "oy@@": 1618,
    "Time": 1618,
    "Join": 1618,
    "week@@": 1616,
    "ush@@": 1616,
    "http://t.co/V@@": 1615,
    "2:": 1613,
    "Exxon": 1612,
    "@_@@": 1611,
    "countr@@": 1611,
    "Twitter": 1610,
    "Rubio": 1610,
    "Conference": 1610,
    "available": 1609,
    "\u00fc@@": 1609,
    "shows": 1608,
    "du@@": 1608,
    "#Hillary@@": 1608,
    "ker": 1607,
    "ton@@": 1606,
    "WE": 1605,
    "join": 1601,
    "Can't": 1601,
    "ain": 1599,
    "ands": 1599,
    "char@@": 1599,
    "already": 1598,
    "Hi@@": 1598,
    "aa@@": 1598,
    "times": 1596,
    "between": 1596,
    "bur@@": 1596,
    "Bi@@": 1594,
    "Fox": 1593,
    "s'": 1592,
    "immigrant": 1592,
    "inn@@": 1591,
    "@POTUS": 1586,
    "Coordinated": 1586,
    "long": 1585,
    "AW@@": 1585,
    "sn@@": 1584,
    "&gt;": 1583,
    "enough": 1582,
    "ow": 1581,
    "??": 1581,
    "Like": 1580,
    "http://t.co/W@@": 1580,
    "\u064a@@": 1579,
    "uff@@": 1578,
    "http://t.co/B@@": 1577,
    "him.": 1574,
    "holiday": 1573,
    "col@@": 1572,
    "http://t.co/I@@": 1572,
    "climate@@": 1571,
    "ld@@": 1571,
    "@lordflaconegro:": 1571,
    "this@@": 1570,
    "Most": 1569,
    "#GOP@@": 1569,
    "16@@": 1568,
    "ins": 1567,
    "ser@@": 1566,
    "Read": 1566,
    "UR@@": 1566,
    "word": 1565,
    "ick": 1565,
    "voting": 1563,
    "ang": 1563,
    "#No@@": 1562,
    "elec@@": 1562,
    "feel": 1561,
    "bro@@": 1561,
    "?!": 1561,
    "since": 1561,
    "http://t.co/H@@": 1561,
    "Ed@@": 1560,
    "Lead@@": 1557,
    "record": 1557,
    "ock@@": 1557,
    "DA@@": 1557,
    "COP21": 1557,
    "black": 1555,
    "Here's": 1555,
    "I've": 1554,
    "=": 1554,
    "Democrats": 1554,
    "cons@@": 1552,
    "http://t.co/N@@": 1551,
    "trying": 1549,
    "Ev@@": 1548,
    "ild@@": 1548,
    "UP@@": 1548,
    "Dec@@": 1547,
    "DI@@": 1546,
    "Up": 1546,
    "tic": 1545,
    "http://t.co/1@@": 1545,
    "ones": 1544,
    "national": 1544,
    "HI@@": 1543,
    "#HillaryForPrison2016": 1542,
    "tter@@": 1541,
    "know@@": 1541,
    "top": 1541,
    "'ll": 1539,
    "Stop": 1537,
    "al:": 1537,
    "poll": 1536,
    "around": 1534,
    "ahead": 1533,
    "pu@@": 1533,
    "'ve": 1532,
    "eni@@": 1532,
    "es!": 1532,
    "uk@@": 1531,
    "http://t.co/P@@": 1530,
    "reg@@": 1528,
    "change:": 1528,
    "spir@@": 1527,
    "hu@@": 1527,
    "#Trump2016@@": 1527,
    "talk@@": 1526,
    "November": 1526,
    "http://t.co/D@@": 1526,
    "Sanders:": 1526,
    "politic@@": 1525,
    "http://t.co/O@@": 1525,
    "ect": 1524,
    "million": 1524,
    "land@@": 1522,
    "ideas": 1521,
    "ont@@": 1521,
    "ky@@": 1521,
    "#news": 1521,
    "Post": 1519,
    "40@@": 1517,
    "lec@@": 1516,
    "such": 1515,
    "http://t.co/y@@": 1515,
    "win@@": 1514,
    "words": 1513,
    "ight": 1513,
    "away": 1513,
    "#CNN": 1513,
    "war": 1512,
    "ft@@": 1512,
    "Wor@@": 1510,
    "ner": 1509,
    "#ThanksgivingClapBack": 1509,
    "run@@": 1508,
    "tor@@": 1507,
    "place": 1507,
    "Top": 1507,
    "HO@@": 1505,
    "La@@": 1505,
    "Ma@@": 1503,
    "everything": 1502,
    "ank@@": 1500,
    "es?": 1500,
    "Make": 1500,
    "ven@@": 1500,
    "Poll:": 1500,
    "29@@": 1498,
    "http://t.co/w@@": 1498,
    "Vo@@": 1498,
    "term": 1497,
    "http://t.co/F@@": 1497,
    "Tees": 1497,
    "ars": 1495,
    "ose": 1495,
    "NT@@": 1493,
    "mi@@": 1492,
    "HU@@": 1491,
    "mis@@": 1490,
    "rum@@": 1490,
    "sec@@": 1488,
    "vagina": 1486,
    "left": 1484,
    "z:": 1481,
    "investment": 1479,
    "boldly": 1478,
    "air@@": 1477,
    "\u306e@@": 1477,
    "los": 1476,
    "Charli": 1476,
    "warming": 1474,
    "Don@@": 1474,
    "interview": 1474,
    "just@@": 1473,
    "it,": 1471,
    "ax@@": 1469,
    "70@@": 1469,
    "FL@@": 1468,
    "pay": 1467,
    "men@@": 1466,
    "hard": 1465,
    "an,": 1465,
    "United": 1463,
    "ach": 1463,
    "power": 1461,
    "80@@": 1461,
    "Jeb": 1461,
    "Keep": 1460,
    "add@@": 1459,
    "Media": 1459,
    "truth@@": 1458,
    "#w@@": 1456,
    "Atheist": 1456,
    "fuck": 1456,
    "ern": 1456,
    "ail": 1456,
    "VI@@": 1456,
    "(IBD)": 1455,
    "Sm@@": 1454,
    "SC@@": 1453,
    "#V@@": 1452,
    "ways": 1451,
    "under": 1451,
    "ade": 1450,
    "30": 1449,
    "THIS": 1449,
    "wee@@": 1448,
    "5:": 1448,
    "strong": 1447,
    "@Univision": 1447,
    "And@@": 1443,
    "body": 1443,
    "http://t.co/l@@": 1443,
    "athe@@": 1440,
    "post": 1440,
    "ley": 1440,
    "firm": 1440,
    "week!": 1439,
    "pic@@": 1436,
    "Immigration": 1436,
    "por@@": 1435,
    "she's": 1435,
    "ever@@": 1434,
    "ana": 1433,
    "World@@": 1433,
    "Vot@@": 1431,
    "ute": 1428,
    "human": 1428,
    "st": 1426,
    "25": 1425,
    "PM": 1424,
    "suppor@@": 1424,
    "find": 1423,
    "BC@@": 1423,
    "These": 1423,
    "2013": 1423,
    "BU@@": 1422,
    "become": 1421,
    "inf@@": 1421,
    "border": 1421,
    "AP@@": 1420,
    "Op@@": 1420,
    "NO": 1418,
    "#trump": 1417,
    "comm@@": 1416,
    "ime": 1416,
    "\u0627\u0644@@": 1416,
    "ens": 1415,
    "prov@@": 1415,
    "BI@@": 1414,
    "a_@@": 1414,
    "try": 1414,
    "re.": 1413,
    "GOP@@": 1413,
    "los@@": 1412,
    "poor": 1411,
    "gay": 1411,
    "you.": 1408,
    "ane@@": 1408,
    "low": 1406,
    "standing": 1406,
    "@An@@": 1406,
    "shi@@": 1405,
    "yr@@": 1405,
    "@V@@": 1405,
    "ju@@": 1403,
    "Business": 1403,
    "WATCH": 1403,
    "@Climate@@": 1402,
    "GH@@": 1402,
    "CK@@": 1402,
    "knows": 1401,
    "ful@@": 1401,
    "bs": 1401,
    "speaks": 1401,
    "hy@@": 1400,
    "Climate@@": 1400,
    "Big": 1399,
    "Want": 1398,
    "her@@": 1397,
    "ized": 1397,
    "har@@": 1396,
    "Anti-@@": 1395,
    "agre@@": 1394,
    "ba@@": 1394,
    "fundraiser": 1394,
    "India": 1393,
    "DontVoteforTrump": 1392,
    "ness": 1391,
    "Hearing": 1391,
    "send": 1390,
    "educ@@": 1389,
    "Africa": 1388,
    "reporter": 1388,
    "AZ@@": 1388,
    "cont@@": 1387,
    "Fo@@": 1387,
    "trump@@": 1387,
    "ym@@": 1386,
    "http://t.co/u@@": 1386,
    "calling": 1385,
    "ut": 1385,
    "e\"": 1384,
    "@the@@": 1384,
    "\ud83d\ude02": 1384,
    "led@@": 1382,
    "@ch@@": 1382,
    "imp@@": 1381,
    "Because": 1380,
    "Bar@@": 1380,
    "ie": 1379,
    "OS@@": 1379,
    "ative": 1378,
    "ST": 1377,
    "person": 1375,
    "mu@@": 1374,
    "Pre@@": 1373,
    "acc@@": 1371,
    "LA@@": 1370,
    "Not@@": 1369,
    "job": 1369,
    "rape": 1369,
    "hh@@": 1368,
    "ure@@": 1366,
    "bord@@": 1366,
    "FA@@": 1365,
    "ask": 1365,
    "able@@": 1364,
    "cour@@": 1362,
    "http://t.co/h@@": 1362,
    "please": 1361,
    "cle@@": 1361,
    "equ@@": 1361,
    "inv@@": 1360,
    "post@@": 1359,
    "ene@@": 1359,
    "ark@@": 1358,
    "78@@": 1357,
    "@i@@": 1357,
    "\"The": 1357,
    "arr@@": 1356,
    "ending": 1356,
    "Ca@@": 1356,
    "blogger": 1356,
    "SH@@": 1355,
    "lol": 1354,
    "lies": 1354,
    "stupid": 1354,
    "90@@": 1354,
    "Universe": 1354,
    "tells": 1353,
    "IM@@": 1352,
    "@r_faulkerson": 1352,
    "OM@@": 1351,
    "YE@@": 1349,
    "free": 1347,
    "Fr@@": 1347,
    "name": 1347,
    "ell": 1347,
    "#trump@@": 1347,
    "'d": 1346,
    "ALL": 1346,
    "tri@@": 1346,
    "ET@@": 1345,
    "#YoureFired": 1345,
    "@ofctrendsetter:": 1345,
    "GM@@": 1344,
    "+": 1342,
    "a's": 1342,
    "@Hillary@@": 1342,
    "less@@": 1340,
    "ator@@": 1340,
    "Words": 1340,
    "wa@@": 1338,
    "dn@@": 1337,
    "ft": 1333,
    "they're": 1332,
    "word!": 1331,
    "an.": 1330,
    "leading": 1329,
    "rapist@@": 1329,
    "Latinos": 1329,
    "dont": 1327,
    "jobs": 1326,
    "http://t.co/c@@": 1325,
    "http://t.co/s@@": 1324,
    "reason": 1323,
    "ya": 1323,
    "50": 1323,
    "#Republican": 1323,
    "nb@@": 1323,
    "@gerfingerpoken:": 1323,
    "under@@": 1322,
    "DU@@": 1322,
    "le:": 1322,
    "access": 1319,
    "uck": 1318,
    "pers@@": 1318,
    "Vi@@": 1318,
    "http://t.co/S@@": 1318,
    "#ElChapo": 1317,
    "some@@": 1316,
    "MI@@": 1313,
    "illi@@": 1312,
    "#Republicans": 1312,
    "ood": 1312,
    "#politics": 1311,
    "te": 1311,
    "row": 1310,
    "prom@@": 1310,
    "Fun@@": 1310,
    "important": 1308,
    "true": 1307,
    "ers,": 1305,
    "33@@": 1305,
    "hn@@": 1304,
    "Oh@@": 1304,
    "MS@@": 1303,
    "again@@": 1303,
    "ally@@": 1303,
    "82@@": 1303,
    "future": 1302,
    "NC": 1302,
    "Fa@@": 1301,
    "My@@": 1301,
    "iss@@": 1301,
    "children": 1300,
    "cc@@": 1300,
    "serv@@": 1299,
    "Iowa.": 1299,
    "Mon@@": 1298,
    "hair@@": 1298,
    "\".": 1297,
    "ks@@": 1295,
    "76@@": 1294,
    "#atheist": 1294,
    "Politicians": 1293,
    "Books": 1293,
    "\u0645@@": 1292,
    "#pjnet": 1288,
    "77@@": 1288,
    "First": 1285,
    "comes": 1284,
    "ational@@": 1284,
    "Sy@@": 1284,
    "view@@": 1283,
    "wonder": 1283,
    "Thanksgiving": 1283,
    "Hu@@": 1282,
    "stands": 1282,
    "both": 1280,
    "#TCOT": 1280,
    "IE@@": 1279,
    "Should": 1277,
    "ster": 1275,
    "yet": 1275,
    "cuts": 1275,
    "wal@@": 1273,
    "i\u2026": 1273,
    "&gt;HiLLARY@@": 1273,
    "ppl": 1272,
    "security": 1272,
    "Ju@@": 1272,
    "companies": 1270,
    "Col@@": 1270,
    "WN@@": 1269,
    "wait": 1268,
    "tre@@": 1268,
    "da@@": 1268,
    "BA@@": 1268,
    "gre@@": 1267,
    "ue@@": 1267,
    "Universal": 1267,
    "Wa@@": 1266,
    "http://t.co/o@@": 1266,
    "#ActOnClimate": 1265,
    "Hussein": 1265,
    "Bank": 1265,
    "word@@": 1264,
    "Bush@@": 1263,
    "A:": 1263,
    "en.": 1262,
    "nam@@": 1261,
    "2016@@": 1261,
    "hom@@": 1260,
    "tion.": 1260,
    "sa@@": 1259,
    "ans.": 1259,
    "Mason": 1258,
    "MD@@": 1257,
    "lost": 1256,
    "#NBC@@": 1256,
    "FO@@": 1255,
    "or:": 1255,
    "T:": 1255,
    "TR@@": 1254,
    "Ti@@": 1254,
    "ary@@": 1253,
    "ns": 1253,
    "sen@@": 1251,
    "ane": 1251,
    "Hillary.": 1251,
    "City,": 1251,
    "choice": 1250,
    "music": 1250,
    "wor@@": 1249,
    "NN@@": 1249,
    "ize": 1248,
    "change,": 1245,
    "plans": 1245,
    "LY": 1245,
    "http://t.co/i@@": 1245,
    "gifts!": 1245,
    "think@@": 1244,
    "Oh": 1244,
    "SA@@": 1244,
    "ough": 1243,
    "found": 1243,
    "incre@@": 1242,
    "feminist@@": 1240,
    "CE@@": 1239,
    "Cr@@": 1238,
    "co": 1238,
    "son@@": 1238,
    "PH@@": 1238,
    "party": 1237,
    "ved": 1237,
    "[Greg": 1237,
    "Yo@@": 1236,
    "Laden's": 1236,
    "ges": 1235,
    "piece": 1235,
    "\ufe0f": 1235,
    "I'd": 1233,
    "Blog]": 1233,
    "problem": 1232,
    "Campaign": 1232,
    "Save": 1232,
    "issue": 1231,
    "air": 1230,
    "EX@@": 1230,
    "tive": 1230,
    "PP@@": 1228,
    "tweets": 1228,
    "looks": 1226,
    "Comments": 1226,
    "ows": 1225,
    "Mor@@": 1224,
    "emb@@": 1224,
    "ps@@": 1224,
    "fucking": 1223,
    "Indi@@": 1223,
    "#TedCruz": 1223,
    "ays": 1222,
    "60@@": 1222,
    "eff@@": 1221,
    "clinton": 1221,
    "PR@@": 1221,
    "eng@@": 1219,
    "documentary": 1219,
    "ove@@": 1218,
    "threat@@": 1217,
    "New@@": 1217,
    "#Ch@@": 1216,
    "https://t.co/OfqlDPfVoU": 1216,
    "@BernieSanders:": 1216,
    "ook@@": 1215,
    "Man@@": 1215,
    "little": 1214,
    "deal@@": 1214,
    "AJ@@": 1214,
    "TRUMP@@": 1214,
    "list@@": 1213,
    "awareness": 1213,
    "per": 1212,
    "im": 1212,
    "Smear": 1212,
    "tb@@": 1211,
    "LD@@": 1210,
    "http://t.co/e@@": 1210,
    "WE@@": 1209,
    "36@@": 1208,
    "erry@@": 1208,
    "bel@@": 1208,
    "atheist@@": 1204,
    "88@@": 1204,
    "Philadelphia.": 1204,
    "turn": 1203,
    "Talks": 1203,
    "ing!": 1202,
    "tax": 1201,
    "boy@@": 1201,
    "American@@": 1201,
    "#ccot": 1199,
    "Or": 1199,
    "telling": 1199,
    "ton": 1198,
    "20": 1197,
    "1P@@": 1195,
    "vegan": 1194,
    "pageant": 1194,
    "Me": 1193,
    "16": 1192,
    "#gop": 1191,
    "DS@@": 1191,
    "CAN": 1190,
    "Char@@": 1189,
    "France": 1189,
    "ned": 1188,
    "mm@@": 1188,
    "WA@@": 1187,
    "ready": 1187,
    "news@@": 1187,
    "F4@@": 1187,
    "told": 1186,
    "ace": 1185,
    "biggest": 1185,
    "it!": 1184,
    "third": 1184,
    "OK@@": 1182,
    "#Feminism": 1182,
    "sub@@": 1181,
    "Chang@@": 1181,
    "change@@": 1181,
    "build": 1181,
    "ko@@": 1181,
    "dy@@": 1180,
    "jK@@": 1180,
    "zi@@": 1179,
    "xb@@": 1179,
    "der": 1177,
    "h\u2026": 1177,
    "va@@": 1176,
    "Latin@@": 1176,
    "election": 1175,
    "polls": 1175,
    "business@@": 1174,
    "Black": 1174,
    "Michelle": 1174,
    "cur@@": 1173,
    "uses": 1173,
    "CL@@": 1173,
    "#ISIS": 1173,
    "acy@@": 1171,
    "Inter@@": 1171,
    "rian@@": 1171,
    "ina@@": 1171,
    "Trump!": 1170,
    "mouth": 1169,
    "\u00e1@@": 1168,
    "leader": 1167,
    "bb@@": 1167,
    "#Bernie2016": 1167,
    "QU@@": 1166,
    "VE": 1165,
    "Youth": 1163,
    "Ter@@": 1163,
    "BL@@": 1162,
    "ital@@": 1161,
    "ards": 1161,
    "Bre@@": 1161,
    "ate.": 1161,
    "7:": 1161,
    "ed:": 1159,
    "kk@@": 1159,
    "inter@@": 1159,
    "Hillary,": 1159,
    "ATE@@": 1158,
    "feminism@@": 1158,
    "amm@@": 1157,
    "cho@@": 1156,
    "ch.": 1156,
    "War@@": 1156,
    "FR@@": 1156,
    "ence@@": 1154,
    "trad@@": 1154,
    "rit@@": 1154,
    "writ@@": 1154,
    "#En@@": 1154,
    "Pi@@": 1154,
    "through": 1153,
    "#donaldtrump@@": 1153,
    "SM@@": 1152,
    "66@@": 1150,
    "activ@@": 1150,
    "tur@@": 1150,
    "liberal": 1150,
    "Obama\u2019s": 1150,
    "people@@": 1149,
    "message": 1149,
    "conf@@": 1148,
    "Comm@@": 1147,
    "crow@@": 1147,
    "D:": 1147,
    "am:": 1146,
    "pping": 1145,
    "Muslims": 1145,
    "Bur@@": 1144,
    "ki@@": 1144,
    "84@@": 1143,
    "Mal@@": 1143,
    "ner@@": 1143,
    "Ri@@": 1143,
    "lead@@": 1142,
    "org@@": 1142,
    "#1@@": 1142,
    "liv@@": 1141,
    "president@@": 1140,
    "22@@": 1139,
    "mat@@": 1139,
    "high@@": 1139,
    "lem@@": 1139,
    "http://t.co/A@@": 1139,
    "1V@@": 1139,
    "ah": 1138,
    "ches": 1138,
    "cer@@": 1137,
    "unethical": 1137,
    "\u00a0": 1137,
    "Har@@": 1136,
    "bre@@": 1135,
    "tou@@": 1135,
    "Even": 1134,
    "John": 1134,
    "Say": 1134,
    "War": 1134,
    "wish": 1133,
    "itt@@": 1133,
    "ga@@": 1132,
    "TO@@": 1132,
    "fire": 1131,
    "campaign@@": 1131,
    "g:": 1131,
    "cit@@": 1130,
    "der@@": 1130,
    "else": 1130,
    "ities": 1129,
    "read@@": 1129,
    "LY@@": 1128,
    "Bro@@": 1128,
    "bra@@": 1128,
    "bc@@": 1128,
    "eric@@": 1128,
    "dumps": 1127,
    "Lo:": 1127,
    "Ni@@": 1126,
    "FE@@": 1126,
    "Wall": 1126,
    "let's": 1125,
    "ough@@": 1125,
    "orn@@": 1124,
    "emp@@": 1123,
    "talks:": 1123,
    "Hi:": 1123,
    "'illegal": 1123,
    "\u0644@@": 1123,
    "lad@@": 1122,
    "abor@@": 1122,
    "Watch:": 1122,
    "Tra@@": 1121,
    "Je@@": 1121,
    "your@@": 1120,
    "carbon": 1120,
    "dou@@": 1120,
    "unt": 1120,
    "singing": 1120,
    "ra": 1119,
    "ignor@@": 1118,
    "Rem@@": 1117,
    "ation.": 1117,
    "Energy": 1117,
    "aking": 1116,
    "vol@@": 1116,
    "Coun@@": 1116,
    "amb@@": 1115,
    "equality": 1115,
    "twee@@": 1114,
    "Pu@@": 1114,
    "here:": 1114,
    "yd@@": 1113,
    "PA@@": 1113,
    "save": 1112,
    "due": 1111,
    "rad@@": 1111,
    "bc": 1111,
    "hr@@": 1109,
    "ISIS@@": 1109,
    "BS@@": 1109,
    "#LatinosUnidos": 1109,
    "ator": 1108,
    "fact": 1108,
    "AD@@": 1108,
    "AG@@": 1107,
    "tiv@@": 1106,
    "gn@@": 1106,
    "form": 1106,
    "Ge@@": 1106,
    "sho@@": 1105,
    "By@@": 1105,
    "Against": 1104,
    "Islamic": 1100,
    "y's": 1100,
    "NBC@@": 1100,
    "Sa@@": 1099,
    "too@@": 1098,
    "JK@@": 1098,
    "GI@@": 1097,
    "#FoxNews": 1097,
    "ity.": 1096,
    "cat@@": 1096,
    "serious": 1096,
    "rich": 1096,
    "two": 1094,
    "ED": 1094,
    "DY@@": 1093,
    "chance": 1093,
    "Mexico@@": 1092,
    "Change.": 1091,
    "YZ@@": 1091,
    "#racist": 1091,
    "CR@@": 1090,
    "ave@@": 1089,
    "ina": 1089,
    "Check": 1089,
    "nomin@@": 1089,
    "igh@@": 1088,
    "least": 1088,
    "ame@@": 1087,
    "Gl@@": 1087,
    "e...": 1087,
    "\u2014@@": 1087,
    "ory": 1086,
    "far": 1085,
    "blame": 1085,
    "kn@@": 1085,
    "Sch@@": 1085,
    "@jo@@": 1085,
    "produc@@": 1084,
    "Ra@@": 1084,
    "\ufe0f@@": 1084,
    "negoti@@": 1084,
    "prof@@": 1083,
    "PV@@": 1083,
    "https://t.co/psXVPVrlTg": 1083,
    "art": 1082,
    "@Sen@@": 1082,
    "na@@": 1082,
    "tal@@": 1081,
    "augh@@": 1081,
    "@BernieSanders": 1080,
    "#News": 1080,
    "\u0631@@": 1080,
    "yp@@": 1079,
    "hor@@": 1079,
    "ak": 1078,
    "God@@": 1077,
    "Af@@": 1076,
    "lear@@": 1075,
    "qj@@": 1075,
    "Calls": 1074,
    "ery": 1073,
    "#DonaldTrump!": 1073,
    "buy": 1072,
    "repor@@": 1072,
    "contr@@": 1072,
    "now.": 1071,
    "ef": 1071,
    "enti@@": 1071,
    "down@@": 1071,
    "bar@@": 1071,
    "es\"": 1071,
    "Again@@": 1071,
    "sch@@": 1070,
    "lish@@": 1069,
    "ha": 1069,
    "al,": 1069,
    "ny": 1068,
    "ound": 1068,
    "We're": 1068,
    "ay,": 1067,
    "ing?": 1067,
    "aul@@": 1066,
    "Dem@@": 1066,
    "ening": 1066,
    "attack": 1066,
    "dist@@": 1066,
    "oud@@": 1065,
    "sue": 1065,
    "oun@@": 1064,
    "ected": 1064,
    "ath": 1063,
    "America@@": 1063,
    "al.": 1062,
    "nu@@": 1062,
    "respect": 1061,
    "s...": 1059,
    "kill@@": 1059,
    "ony": 1059,
    "Right": 1059,
    "apolog@@": 1059,
    "eli@@": 1058,
    "Plan": 1057,
    "Int@@": 1056,
    "See": 1056,
    "see@@": 1055,
    "ade@@": 1055,
    "loc@@": 1055,
    "cul@@": 1055,
    "hit": 1055,
    "2016&gt;": 1055,
    "behind": 1054,
    "El@@": 1053,
    "head": 1052,
    "HT": 1051,
    "Pres": 1050,
    "Saying": 1049,
    "val@@": 1048,
    "beat": 1048,
    "che@@": 1047,
    "effects": 1047,
    "Pass": 1047,
    "Lies": 1047,
    "Another": 1047,
    "dump": 1046,
    "Court": 1046,
    "Ur@@": 1046,
    "NASA": 1046,
    "At@@": 1046,
    "ate,": 1045,
    "lock": 1045,
    "h,": 1044,
    "probably": 1044,
    "Zu@@": 1044,
    "ects": 1043,
    "Cu@@": 1043,
    "WT@@": 1042,
    "ee": 1042,
    "more@@": 1042,
    "report": 1042,
    "ist:": 1042,
    "ual": 1041,
    "voters": 1041,
    "S:": 1041,
    "show@@": 1040,
    "finally": 1040,
    "top@@": 1040,
    "bab@@": 1040,
    "open": 1040,
    "d:": 1040,
    "#US@@": 1039,
    "is:": 1039,
    "sts": 1039,
    "Mur@@": 1038,
    "ana@@": 1038,
    "GA@@": 1038,
    "#Stop@@": 1038,
    "Fired@@": 1038,
    "Xi@@": 1038,
    "le.": 1037,
    "full": 1037,
    "na": 1037,
    "Wat@@": 1037,
    "them.": 1036,
    "http://t.co/a@@": 1036,
    "Mr@@": 1036,
    "!!!!": 1035,
    "Wi@@": 1035,
    "hillary": 1035,
    "ww@@": 1035,
    "May": 1034,
    "dd@@": 1034,
    "right.": 1034,
    "@al@@": 1034,
    "Clinton.": 1034,
    "26@@": 1034,
    "ale": 1033,
    "1st": 1033,
    "Ci@@": 1033,
    "#Mexicans": 1033,
    "#climate@@": 1032,
    "umb@@": 1032,
    "Than": 1032,
    "MN@@": 1032,
    "ists:": 1032,
    "#Rac@@": 1031,
    "k6@@": 1031,
    "hand@@": 1030,
    "Report": 1030,
    "sex@@": 1029,
    "dre@@": 1028,
    "prot@@": 1028,
    "#New@@": 1028,
    "sil@@": 1028,
    "@Real@@": 1028,
    "giving": 1027,
    "35@@": 1027,
    "???": 1027,
    "Fu@@": 1027,
    "tru@@": 1026,
    "#FeelTheBern": 1025,
    "Ye@@": 1025,
    "stor@@": 1025,
    "Clinton\u2019s": 1025,
    "Ste@@": 1024,
    "takes": 1024,
    "tn@@": 1024,
    "CI@@": 1024,
    "&gt;&gt;": 1024,
    "#Paris": 1024,
    "FF@@": 1023,
    "comment@@": 1023,
    "Back": 1023,
    "candid@@": 1022,
    "@v@@": 1022,
    "attacks": 1022,
    "\u2019t": 1022,
    "ING@@": 1021,
    "DC": 1021,
    "Du@@": 1021,
    "\u2026@@": 1021,
    "Ba@@": 1021,
    "pos@@": 1020,
    "ement@@": 1020,
    "supporting": 1019,
    "App@@": 1018,
    "t!": 1016,
    "Washington": 1016,
    "guess": 1016,
    "Could": 1015,
    "sal@@": 1015,
    "THE@@": 1015,
    "Would": 1015,
    "#MissUniverse": 1015,
    "cause": 1014,
    "ind": 1014,
    "key": 1014,
    "order": 1014,
    "85@@": 1013,
    "is.": 1013,
    "Ties": 1013,
    "Pres@@": 1012,
    "well@@": 1011,
    "bas@@": 1011,
    "%@@": 1011,
    "61@@": 1011,
    "ition@@": 1010,
    "er!": 1010,
    "Rac@@": 1010,
    "press": 1010,
    "ive": 1009,
    "II@@": 1009,
    "as:": 1008,
    "move": 1007,
    "ED@@": 1007,
    "WR@@": 1007,
    "para": 1007,
    "tro@@": 1006,
    "hur@@": 1006,
    "pan@@": 1005,
    "AN": 1005,
    "\u00f3n": 1005,
    "exp@@": 1004,
    "hop@@": 1004,
    "ock": 1004,
    "ject": 1004,
    "thanks": 1004,
    "MP@@": 1004,
    "gra@@": 1003,
    "Si@@": 1002,
    "gener@@": 1002,
    "ive@@": 1002,
    "Democratic": 1002,
    "p:": 1001,
    "#Illegal@@": 1001,
    "Truth": 1000,
    "Gov@@": 1000,
    "major": 1000,
    "Ros@@": 1000,
    "uz@@": 999,
    "means": 998,
    "ically": 998,
    "ff": 998,
    "sa": 997,
    "HR@@": 997,
    "lev@@": 996,
    "ess.": 995,
    "Politics": 995,
    "thing.": 994,
    "ll": 994,
    "abortion!": 994,
    "#Mexican": 993,
    "Mouth": 993,
    "0j@@": 992,
    "Canad@@": 991,
    ",\"": 991,
    "Att@@": 990,
    "Well": 990,
    "George": 989,
    "IR@@": 989,
    "cal@@": 989,
    "ging": 988,
    "Leaked": 988,
    "Parenthood": 988,
    "cap@@": 987,
    "Sur@@": 986,
    "public": 986,
    "illegal@@": 986,
    "idiot": 985,
    "v4@@": 985,
    "hat@@": 984,
    "ives": 983,
    "house": 983,
    "@Sh@@": 983,
    "08@@": 983,
    "Racist": 983,
    "mc@@": 983,
    "direc@@": 982,
    "rights": 982,
    "ne": 982,
    "story": 982,
    "79@@": 980,
    "Tru@@": 979,
    "ignorant": 979,
    "100%": 979,
    "Tell": 978,
    "ce:": 978,
    "U6@@": 978,
    ":)": 976,
    "Dear": 976,
    "BREAKING": 976,
    "ice@@": 975,
    "Security": 975,
    "other@@": 974,
    "stupid@@": 974,
    "eep@@": 974,
    "tra@@": 973,
    "offici@@": 973,
    "Wy@@": 973,
    "worked": 973,
    "drug": 973,
    "\u0648@@": 973,
    "ial": 972,
    "\u3044@@": 972,
    "BJ@@": 971,
    "Gi@@": 971,
    "75@@": 970,
    "self": 970,
    "BE": 970,
    "Res@@": 970,
    "Team": 970,
    "':": 970,
    "#nbc": 970,
    "aide": 970,
    "Islam": 969,
    "Must": 969,
    "zu@@": 969,
    "terror@@": 968,
    "China": 968,
    "ance@@": 967,
    "clear": 967,
    "@cn@@": 967,
    "Terror@@": 967,
    "o.": 966,
    "Judge": 966,
    "vv@@": 965,
    "io": 964,
    "NEWS": 964,
    "lying": 963,
    "Hair": 963,
    "problem@@": 963,
    "@CNN@@": 963,
    "Econom@@": 962,
    "March": 962,
    "cent@@": 961,
    "rup@@": 960,
    "itu@@": 960,
    "port@@": 960,
    "port": 960,
    "PU@@": 960,
    "V4@@": 960,
    "adaptation": 960,
    "tain@@": 959,
    "Its": 959,
    "ya@@": 959,
    "duc@@": 958,
    "matt@@": 958,
    "dam@@": 957,
    "Here": 957,
    "@mar@@": 957,
    "Emails:": 957,
    "shooting": 956,
    "MT": 956,
    "lat@@": 955,
    "emissions": 955,
    "fires": 955,
    "vide@@": 955,
    "god@@": 954,
    "ong": 954,
    "good@@": 954,
    "ata": 954,
    "ino": 954,
    "cus@@": 954,
    "PP": 954,
    "Poll": 954,
    "@NBC": 954,
    "Lu@@": 953,
    "#Wh@@": 953,
    "Sw@@": 953,
    "lu@@": 952,
    "Refugees": 952,
    "social@@": 951,
    "celebr@@": 950,
    "com": 950,
    "event": 950,
    "yw@@": 950,
    "wel@@": 949,
    "ball": 949,
    "OB@@": 949,
    "immigrants@@": 949,
    "ism,": 949,
    "om": 948,
    "mom@@": 948,
    "ants": 948,
    "States": 948,
    "2n@@": 947,
    "ought": 947,
    "ems": 947,
    "Sc@@": 947,
    "med@@": 946,
    "relationship": 946,
    "Ug@@": 945,
    "D9@@": 945,
    "gt@@": 945,
    "net@@": 945,
    "likely": 944,
    "watching": 944,
    "green@@": 944,
    "Right@@": 944,
    "re,": 943,
    "ress@@": 943,
    "young": 943,
    "oil": 943,
    "BD@@": 943,
    "Liber@@": 942,
    "ead": 942,
    "LOL@@": 942,
    "play": 941,
    "sel@@": 940,
    "John@@": 940,
    "tter": 939,
    "@UN@@": 939,
    "\u3067@@": 939,
    "28@@": 938,
    "sol@@": 938,
    "miss@@": 938,
    "ket": 938,
    "ited": 938,
    "zy@@": 938,
    "#latin@@": 938,
    "ze@@": 937,
    "women@@": 936,
    "Powerful": 936,
    "critic@@": 936,
    "fun@@": 936,
    "fuel": 936,
    "country.": 936,
    "TS@@": 936,
    "olog@@": 935,
    "DP@@": 935,
    "wall": 935,
    "ump": 935,
    "PM@@": 935,
    "bal@@": 934,
    "up.": 934,
    "ality": 933,
    "afraid": 933,
    "we're": 933,
    "lie": 933,
    "fam@@": 933,
    "3Z@@": 933,
    "VER@@": 932,
    "Boycott": 932,
    "looking": 931,
    "human@@": 931,
    "pun@@": 931,
    "repres@@": 931,
    "lies,": 931,
    "Times": 931,
    "Life": 930,
    "ori@@": 930,
    "Jr@@": 930,
    "#\u2026": 929,
    "ku@@": 928,
    "Law@@": 928,
    "PI@@": 928,
    "Wal@@": 927,
    "Tim@@": 926,
    ";@@": 926,
    "immigrant@@": 926,
    "opp@@": 925,
    "ves": 925,
    "23@@": 925,
    "point@@": 925,
    "97@@": 925,
    "goes": 924,
    "Man": 924,
    "Tw@@": 924,
    "views": 924,
    "created": 923,
    "low@@": 923,
    "jk@@": 923,
    "#Latinos": 923,
    "#Trump,": 923,
    "mod@@": 922,
    "chang@@": 922,
    "FQ@@": 922,
    "trans@@": 921,
    "sense": 921,
    "!!!!@@": 921,
    "understand": 921,
    "americ@@": 921,
    "great@@": 921,
    "follow": 921,
    "ich@@": 921,
    "Under@@": 921,
    "beg@@": 920,
    "Fran@@": 920,
    "health@@": 920,
    "hl@@": 920,
    "girl": 920,
    "ay:": 920,
    "Hispanic": 920,
    "p2@@": 920,
    "):": 919,
    "44@@": 918,
    "cra@@": 918,
    "ses": 918,
    "Inv@@": 918,
    "family": 917,
    "July": 917,
    "MM@@": 917,
    "Ep@@": 917,
    "Med@@": 917,
    "one.": 916,
    "une": 916,
    "Makes": 915,
    "NS@@": 915,
    "\u00bb": 915,
    "Axed": 915,
    "fear": 914,
    "#America": 914,
    "Ok@@": 914,
    "mov@@": 913,
    "JU@@": 913,
    "Fuck": 913,
    "Elec@@": 913,
    "FK@@": 913,
    "keeps": 913,
    "ES": 913,
    "\ud83d\udc4f@@": 913,
    "Immigrant": 913,
    "ger@@": 912,
    "@Am@@": 912,
    "sb@@": 912,
    "eve@@": 912,
    "Prot@@": 912,
    "HE": 911,
    "fund@@": 911,
    "Xi": 911,
    "Mi@@": 910,
    "onal@@": 910,
    "F9@@": 910,
    "LE": 909,
    "cast": 909,
    "#Clinton": 909,
    "C\u2026": 909,
    "~@@": 908,
    "qui@@": 908,
    "lose": 908,
    "JV@@": 908,
    "fired@@": 908,
    "fic@@": 907,
    "fail@@": 907,
    "politicians": 907,
    "exper@@": 907,
    "gd@@": 907,
    "Y9@@": 907,
    "cn@@": 907,
    "thank": 906,
    "list": 906,
    "m4@@": 906,
    "Williams": 906,
    "Down": 905,
    "\"So": 904,
    "abo@@": 904,
    "OL@@": 904,
    "tP@@": 904,
    "tor": 903,
    "staff": 903,
    "aG@@": 903,
    "Barack@@": 903,
    "matter": 901,
    "hat": 901,
    "\u00e9": 901,
    "ote": 900,
    "27@@": 900,
    "tly": 900,
    "state": 899,
    "89@@": 899,
    "adm@@": 899,
    "Help": 899,
    "#You@@": 898,
    "obama": 898,
    "president.": 898,
    "esp@@": 897,
    "republican": 897,
    "Planned": 897,
    "Been": 897,
    "#re@@": 896,
    "ME": 896,
    "losing": 896,
    "Macy@@": 896,
    "ily": 895,
    "illion@@": 895,
    "HILLARY": 895,
    "E7@@": 895,
    "Ou@@": 895,
    "oh": 894,
    "TW@@": 894,
    "history": 893,
    "Fv@@": 893,
    "behavior": 893,
    "Texas,": 893,
    "Lv@@": 892,
    "ution": 891,
    "ush": 891,
    "Des@@": 891,
    "issues": 890,
    "Big@@": 889,
    "tweeting": 889,
    "U5@@": 889,
    "JO@@": 888,
    "net": 888,
    "Qj@@": 888,
    "\u2192": 888,
    "once": 887,
    "what@@": 887,
    "TRUMP.": 887,
    "11": 886,
    "ligh@@": 886,
    "Every": 885,
    "bs@@": 885,
    "SR@@": 885,
    "Zo@@": 885,
    "Er@@": 885,
    "obam@@": 885,
    "wr@@": 884,
    "choice\"": 884,
    "aB@@": 884,
    "anywhere.": 884,
    "Graham": 883,
    "happ@@": 883,
    "among": 883,
    "@Con@@": 883,
    "golf": 883,
    "grow@@": 882,
    "they@@": 882,
    "Over@@": 882,
    "Syrian": 882,
    "38@@": 881,
    "mother": 881,
    "stat@@": 881,
    "HT@@": 881,
    "FB@@": 881,
    "U.@@": 880,
    "56@@": 879,
    "tC@@": 879,
    "clean": 878,
    "idiot@@": 878,
    "Ly@@": 878,
    "&amp;quot@@": 878,
    "ly.": 877,
    "What's": 877,
    "issu@@": 876,
    "kh@@": 876,
    "@Mike@@": 876,
    "hon@@": 876,
    "BB@@": 876,
    "yF@@": 875,
    "tte": 874,
    "foreign": 874,
    "guide": 874,
    "OD@@": 874,
    "\"Being": 874,
    "case": 873,
    "tv@@": 873,
    "Fired": 873,
    "#US,": 873,
    "interfere": 873,
    "les@@": 872,
    "EP@@": 872,
    "it:": 872,
    "ged": 871,
    "inis@@": 871,
    "7M@@": 871,
    "enem@@": 870,
    "Inst@@": 870,
    "Maybe": 870,
    "cost": 870,
    "Someone": 870,
    "aR@@": 870,
    "liz@@": 869,
    "cott@@": 869,
    "Breitbart": 869,
    "mashed": 869,
    "tz@@": 868,
    "Leg@@": 868,
    "agenda": 868,
    "t\u2026": 868,
    "#Politics,": 868,
    "Opened": 868,
    "#racism,": 868,
    "create": 867,
    "Joe": 867,
    "supports": 866,
    "She@@": 866,
    "@John@@": 866,
    "CN@@": 866,
    "care\u2014not": 866,
    "CON@@": 865,
    "hell": 865,
    "Cap@@": 865,
    "ka@@": 865,
    "Gy@@": 865,
    "&amp;quot": 865,
    "Poured": 865,
    "please!\"": 865,
    "potatoes": 865,
    "watch@@": 864,
    "plan@@": 864,
    "answer": 864,
    "GU@@": 864,
    "$": 864,
    "&lt;@@": 864,
    "ly,": 863,
    "GR@@": 863,
    "seen": 863,
    "wins": 863,
    "x:": 863,
    "Ken@@": 863,
    "that.": 862,
    "BREAKING:": 862,
    "agreement": 862,
    "WJ@@": 862,
    "\u0628@@": 862,
    "atheism": 861,
    "hypo@@": 861,
    "XC@@": 861,
    "land": 861,
    "Kn@@": 861,
    "Xx@@": 861,
    "cN@@": 861,
    "https://t.co/GvKo\u2026": 861,
    "#j@@": 860,
    "doc@@": 860,
    "oppos@@": 860,
    "hot@@": 860,
    "@KareemDAnt:": 860,
    "aren't": 859,
    "ys": 859,
    "ears": 859,
    "@realDonaldTrump:": 859,
    "TS": 858,
    "clown@@": 858,
    "3Q@@": 858,
    "CNN:": 858,
    "VM@@": 858,
    "hum@@": 857,
    "Politic@@": 857,
    "zl@@": 857,
    "killing": 856,
    "AL": 856,
    "canc@@": 856,
    "Palin": 856,
    "Xr@@": 856,
    "bP@@": 856,
    "longer": 855,
    "wat@@": 855,
    "Ind@@": 855,
    "Str@@": 855,
    "abt": 855,
    "illegals": 855,
    "warmest": 855,
    "Hollande": 855,
    "us.": 854,
    "39@@": 854,
    "risk": 854,
    "ado": 854,
    "ost": 854,
    "OA@@": 854,
    "question": 853,
    "Ru@@": 853,
    "Off@@": 852,
    "wom@@": 852,
    "OBAMA": 852,
    "ices": 851,
    "#SheLies": 851,
    "ji@@": 850,
    "eck@@": 850,
    "billion": 850,
    "#DonaldTrump?": 849,
    "Nf@@": 849,
    "latin@@": 849,
    "dm@@": 849,
    "suspended": 849,
    "pri@@": 848,
    "table": 848,
    "1g@@": 848,
    "ull@@": 848,
    "announc@@": 848,
    "appro@@": 847,
    "Sign": 847,
    "Ow@@": 846,
    "34@@": 845,
    "lab@@": 845,
    "ham@@": 845,
    "Also": 845,
    "supporters": 845,
    "target": 845,
    "me.": 844,
    "cannot": 844,
    "\":": 844,
    "@th@@": 844,
    "Wr@@": 844,
    "Victim": 844,
    "honest@@": 843,
    "QQ@@": 843,
    "gender": 842,
    "del@@": 842,
    "@Y@@": 842,
    "DC@@": 842,
    "WILL": 842,
    "$2@@": 842,
    "\u062a@@": 842,
    "Call": 841,
    "people.": 841,
    "a4@@": 841,
    "a...": 841,
    "zd@@": 841,
    "@Atheist_@@": 841,
    "#Paris@@": 840,
    "2y@@": 840,
    "21@@": 839,
    "works": 839,
    "ope@@": 839,
    "Pet@@": 838,
    "Cre@@": 838,
    "public@@": 838,
    "@BreitbartNews": 838,
    "@JebBush": 837,
    "gas": 837,
    "pledges": 837,
    "gave": 836,
    "Meet": 836,
    "Et@@": 836,
    "ball@@": 835,
    "Some": 835,
    "friends": 835,
    "BT@@": 835,
    "POTUS": 835,
    "ZK@@": 835,
    "\ud83d\ude02\ud83d\ude02": 835,
    "taken": 834,
    "sid@@": 834,
    "ages": 834,
    "aming": 834,
    "SJ@@": 834,
    "cities": 834,
    "It\u2019s": 834,
    "SS@@": 833,
    "weather": 833,
    "BG@@": 833,
    "ability": 832,
    "scre@@": 832,
    "qr@@": 832,
    "Inte@@": 831,
    "control": 831,
    "attack@@": 831,
    "@guardi@@": 831,
    "je@@": 831,
    "Athe@@": 830,
    "few": 830,
    "rapists": 830,
    "yc@@": 829,
    "#BernieSanders": 829,
    "police": 828,
    "#St@@": 828,
    "cutting": 828,
    "smear": 828,
    "use@@": 828,
    "Hy@@": 828,
    "fore@@": 827,
    "There's": 826,
    "need@@": 826,
    "Mexican@@": 826,
    "mag@@": 826,
    "sr@@": 826,
    "idd@@": 826,
    "NC@@": 826,
    "MT@@": 826,
    "2015@@": 825,
    "XCX's": 825,
    "there's": 824,
    "kw@@": 824,
    "oll": 823,
    "front": 823,
    "ated@@": 823,
    "yf@@": 823,
    "str@@": 822,
    "Black@@": 822,
    "Green@@": 822,
    "4Z@@": 822,
    "ose@@": 822,
    "\u0646@@": 822,
    "AS": 820,
    "respon@@": 820,
    "mind@@": 819,
    "51@@": 819,
    "Sha@@": 819,
    "Au@@": 818,
    "course": 818,
    "York": 818,
    "\u306a@@": 818,
    "ails": 817,
    "gone": 817,
    "paid": 817,
    "ATE": 817,
    "ada": 817,
    "p.": 816,
    "whole": 816,
    "resp@@": 816,
    "Xl@@": 816,
    "stand@@": 815,
    "follow@@": 815,
    "instead": 815,
    "abortion@@": 815,
    "Supreme": 814,
    "team": 814,
    ".@realDonaldTrump": 814,
    "SY@@": 814,
    "KX@@": 814,
    "mer@@": 813,
    "ith@@": 813,
    "march": 813,
    "born": 813,
    "ZE@@": 813,
    "Gre@@": 812,
    "meeting": 811,
    "ation:": 811,
    "rais@@": 810,
    "took": 810,
    "Denial": 810,
    "six": 810,
    "Stand@@": 810,
    "Ax@@": 809,
    "terrorist@@": 809,
    "se.": 808,
    "America.": 808,
    "Um@@": 807,
    "Ay@@": 807,
    "w6@@": 807,
    "ate:": 807,
    "kind": 806,
    "Afric@@": 806,
    "86@@": 806,
    "jec@@": 805,
    "class@@": 805,
    "Berni@@": 805,
    "qV@@": 805,
    "Sister": 805,
    "#Pro@@": 804,
    "May@@": 804,
    "Twee@@": 804,
    "aci@@": 804,
    "TA@@": 804,
    "man:": 804,
    "~": 803,
    "gen@@": 803,
    "today@@": 803,
    "45@@": 803,
    "01@@": 803,
    "controvers@@": 802,
    "you!": 801,
    "Too": 801,
    "pass@@": 801,
    "ta": 801,
    "Dump@@": 801,
    "eC@@": 801,
    "proud": 800,
    "Being": 800,
    "Ja@@": 800,
    "gun": 800,
    "Yes,": 800,
    "Jx@@": 800,
    "maybe": 799,
    "clus@@": 799,
    "secre@@": 799,
    "himself": 799,
    "crim@@": 799,
    "#Donald@@": 799,
    "jj@@": 799,
    "histor@@": 798,
    "death": 798,
    "Cha@@": 798,
    "qv@@": 798,
    "care@@": 797,
    "green": 797,
    "ately": 797,
    "derail": 797,
    "@David@@": 796,
    "aving": 796,
    "https://t.co/5LMdfEMYe5": 796,
    "Where": 795,
    "radical": 795,
    "mak@@": 795,
    "AA@@": 795,
    "Presid@@": 795,
    "Hum@@": 794,
    "ga": 794,
    "ds@@": 794,
    "YD@@": 794,
    "e's": 793,
    "Ta@@": 793,
    "Gloria": 793,
    "F3@@": 793,
    "fied": 792,
    "o,": 792,
    "aught": 792,
    "far@@": 792,
    "ney": 792,
    "#ch@@": 791,
    "#Con@@": 791,
    "protect": 791,
    "Act": 791,
    "indic@@": 791,
    "\u306b@@": 791,
    "ture": 790,
    "social": 790,
    "ley@@": 790,
    "haha@@": 790,
    "nat@@": 789,
    "unt@@": 789,
    "que@@": 789,
    "TY@@": 789,
    "viol@@": 788,
    "data": 788,
    "Fin@@": 788,
    "Statement": 788,
    "wo@@": 788,
    "81@@": 788,
    "Bra@@": 787,
    "J3@@": 787,
    "Latest": 787,
    "German": 787,
    "ides": 786,
    "oh@@": 786,
    "WI@@": 786,
    "Speech": 786,
    "Everyone": 785,
    "job@@": 785,
    "gD@@": 785,
    "Summit:": 785,
    "prevent": 784,
    "LL": 784,
    "bt@@": 784,
    "showing": 784,
    "KL@@": 784,
    "inds": 783,
    "inst@@": 783,
    "Vj@@": 783,
    "news:": 783,
    "@ro@@": 782,
    "liber@@": 782,
    "LU@@": 782,
    "like@@": 782,
    "Paris@@": 782,
    "sM@@": 782,
    "@CNN:": 782,
    "knew": 781,
    "wouldn't": 781,
    "bor@@": 781,
    "Ko@@": 781,
    "Est@@": 781,
    "ided": 781,
    "\u00ed@@": 781,
    "worst": 780,
    "men,": 780,
    "later": 780,
    "ey": 780,
    "side": 780,
    "sorry": 780,
    "o\u2026": 780,
    "wk@@": 780,
    "Law": 780,
    "ma": 779,
    "55@@": 779,
    "eter@@": 779,
    "Her@@": 779,
    "ql@@": 779,
    "c\u2026": 779,
    "2C@@": 779,
    "CNN@@": 779,
    "Real": 778,
    "millions": 778,
    "movement": 778,
    "sY@@": 778,
    "room": 777,
    "ech": 777,
    "TT@@": 776,
    "BR@@": 776,
    "\"You're": 776,
    "decide": 775,
    "outh@@": 775,
    "planet@@": 775,
    "CAN@@": 775,
    "OW@@": 775,
    "Tod@@": 775,
    "Thinker": 775,
    "water": 774,
    "ub": 774,
    "Sand@@": 774,
    "Trump\u2019s": 774,
    "stuff": 774,
    "DH@@": 774,
    "Paris,": 774,
    "trust": 773,
    "Today": 773,
    "eas@@": 773,
    "5K@@": 773,
    "worth": 772,
    "thr@@": 772,
    "dM@@": 772,
    "b7@@": 772,
    "immigrants'": 772,
    "life@@": 771,
    "ile@@": 771,
    "bad@@": 771,
    "elected": 771,
    "wea@@": 770,
    "you,": 770,
    "ool": 770,
    "difference": 770,
    "wn@@": 770,
    "brand": 770,
    "\u015f@@": 770,
    "Recalls": 770,
    "Debate": 769,
    "All@@": 769,
    "ja@@": 769,
    "Pol@@": 769,
    "@US@@": 769,
    "ian@@": 769,
    "Estefan": 769,
    "rather": 768,
    "accoun@@": 768,
    "answ@@": 767,
    "4th": 767,
    "attending": 767,
    "aily@@": 767,
    "hil@@": 767,
    "JM@@": 767,
    "ket@@": 767,
    "\u00eda": 767,
    "@WORIDSTARHIPH0P:": 767,
    "acks": 766,
    "_S@@": 766,
    "issue.": 766,
    "priv@@": 766,
    "ale@@": 766,
    "Rape": 766,
    "Candid@@": 766,
    "\u00f6@@": 766,
    "#ImWithHer": 765,
    "Turki": 765,
    "bigot@@": 764,
    "IST": 764,
    "article": 764,
    "\u2019re": 764,
    "7v@@": 764,
    "\u2018Perpetuated\u2019": 764,
    "Qv@@": 763,
    "\u011f@@": 763,
    "\u30fc@@": 763,
    "out.": 762,
    "Feminist@@": 762,
    "TU@@": 762,
    "killed": 762,
    "KK@@": 762,
    "Id@@": 762,
    "z4@@": 762,
    "\u00f3": 762,
    "Data": 762,
    "2nd": 761,
    "E9@@": 761,
    "05@@": 761,
    "69@@": 761,
    "@UN:": 761,
    "expect": 760,
    "Def@@": 760,
    "kids": 760,
    "fre@@": 760,
    "California": 760,
    "@HuffPost@@": 760,
    "3r@@": 760,
    "zK@@": 760,
    "ts:": 760,
    "liked": 760,
    "Think": 758,
    "here@@": 758,
    "Wea@@": 758,
    "pretty": 758,
    "FG@@": 758,
    "tD@@": 758,
    "6D@@": 758,
    "@ALDUB_EUROPE:": 758,
    "beli@@": 757,
    "Ass@@": 757,
    "fron@@": 757,
    "@NBC@@": 757,
    "endors@@": 757,
    "VIDEO:": 757,
    "ation,": 756,
    "oting": 756,
    "bitch": 756,
    "ort": 756,
    "j8@@": 756,
    "statement": 756,
    "Ric@@": 756,
    "Lab@@": 756,
    "almost": 755,
    "came": 755,
    "together": 755,
    "damn": 755,
    "lD@@": 755,
    "justice": 754,
    "David": 754,
    "asc@@": 754,
    "Any@@": 754,
    "Bad": 754,
    "let@@": 753,
    "thinking": 753,
    "City": 753,
    "Your@@": 753,
    "ND@@": 753,
    "cw@@": 753,
    "industry": 753,
    "tt": 753,
    "CU@@": 753,
    "Q0@@": 753,
    "G0@@": 753,
    "\u3057@@": 753,
    "21": 752,
    "ship": 752,
    "Fac@@": 752,
    "ARE": 752,
    "wanted": 752,
    "Culture": 752,
    "@realDonaldTrump@@": 752,
    "X5@@": 752,
    "play@@": 751,
    "EU@@": 751,
    "WY@@": 751,
    "@climate@@": 751,
    "\u3001@@": 751,
    "bul@@": 750,
    "plac@@": 750,
    "ots": 750,
    "umm@@": 750,
    "LG@@": 750,
    "addow": 750,
    "yJ@@": 750,
    "YO@@": 750,
    "Reveal": 750,
    "ani@@": 749,
    "reality": 749,
    "IT": 749,
    "arah@@": 749,
    "WK@@": 749,
    "Remarks": 748,
    "sZ@@": 748,
    "Out@@": 748,
    "I:": 748,
    "IV@@": 747,
    "ingly": 747,
    "Nu@@": 747,
    "WS@@": 747,
    "FBI": 747,
    "stay": 746,
    "yy@@": 746,
    "@BarackObama": 746,
    "joke": 746,
    "With@@": 746,
    "@gerfingerpoken2:": 746,
    "\ud83d\udc49\ud83c\udffb@@": 746,
    "aying": 745,
    "@Ch@@": 745,
    "funding": 745,
    "Read@@": 745,
    "PC@@": 745,
    "entr@@": 745,
    "economic": 745,
    "dra@@": 745,
    "votes": 745,
    "Earth's": 745,
    "feminism.": 744,
    "kid@@": 744,
    "Chelsea": 744,
    "NR@@": 744,
    "ates@@": 744,
    "#Christi@@": 743,
    "ined": 743,
    "95@@": 743,
    "Obama.": 743,
    "kV@@": 743,
    "@ShujaRabbani:": 743,
    "https://t.co/okkb7p2kU9": 743,
    "Deal": 742,
    "host": 742,
    "mind": 741,
    "Mother": 741,
    "Wee@@": 741,
    "sent": 741,
    "Exp@@": 741,
    "nd@@": 741,
    "Stat@@": 741,
    "Reagan": 741,
    "offic@@": 741,
    "leave": 740,
    "avoid": 740,
    "La": 740,
    "lar@@": 740,
    "#2A": 740,
    "@Fox@@": 740,
    "remind": 739,
    "BO@@": 739,
    "s5@@": 739,
    "ZN@@": 739,
    "PY@@": 739,
    "8:": 739,
    "ter:": 738,
    "die": 738,
    "__@@": 738,
    "ore@@": 738,
    "ng": 738,
    "Iow@@": 738,
    "WF@@": 738,
    "Ll@@": 738,
    "BP@@": 737,
    "64@@": 737,
    "extrem@@": 736,
    "Former": 736,
    "gives": 735,
    "13": 735,
    "again.": 735,
    "mur@@": 735,
    "mouth@@": 735,
    "AMERIC@@": 735,
    "Americ@@": 735,
    "\u304c@@": 735,
    "rible": 734,
    "seems": 734,
    "worse": 734,
    "Back@@": 734,
    "Mexicans@@": 734,
    "G9@@": 734,
    "economy": 733,
    "loves": 733,
    "acts": 733,
    "advoc@@": 733,
    "09@@": 733,
    "\u00e7@@": 733,
    "#IBDeditorials": 733,
    "ian": 732,
    "Change@@": 732,
    "starting": 732,
    "atriot": 732,
    ".\u201d": 732,
    "ith": 731,
    "marri@@": 731,
    "AP": 731,
    "correc@@": 731,
    "!!@@": 731,
    "field": 731,
    "hold": 730,
    "idea": 730,
    "t?": 730,
    "tty": 730,
    "Children": 730,
    "alist": 730,
    "Gun": 730,
    "6z@@": 730,
    "Great@@": 729,
    "oud": 729,
    "#2016": 729,
    "https://t.co/o4NS6pLuj9": 729,
    "LOL": 728,
    "alit@@": 728,
    "couldn't": 728,
    "3rd": 728,
    "Ud@@": 728,
    "#DonaldTrump\u2019s": 728,
    "@Car@@": 728,
    "ts.": 727,
    "Atheism": 727,
    "Look": 727,
    "@tedcruz": 727,
    "gun@@": 727,
    "Family": 727,
    "p\u2026": 727,
    "write": 726,
    "cial": 726,
    "04@@": 726,
    "8K@@": 726,
    "Attacks": 725,
    "wing": 725,
    "TX@@": 725,
    "GE": 725,
    "8H@@": 725,
    "ority": 724,
    "Made": 724,
    "Dems": 724,
    "6K@@": 724,
    "aren@@": 723,
    "yD@@": 723,
    "https://t.co/eq2us6nU9U": 723,
    "Matt@@": 722,
    "som@@": 722,
    "ay.": 722,
    "Da@@": 722,
    "Party@@": 722,
    "https://t.co/IS\u2026": 722,
    "second": 721,
    "shut": 721,
    "\"We": 721,
    "03@@": 721,
    "os:": 721,
    "Government": 720,
    "put@@": 720,
    "EL@@": 720,
    "s0@@": 720,
    "\u308b@@": 720,
    "claims": 719,
    "Amaz@@": 719,
    "cond@@": 719,
    "Wt@@": 719,
    "07@@": 719,
    "xZ@@": 719,
    "P:": 719,
    "Poll@@": 719,
    "\u305f@@": 719,
    "@Drudge_Report_:": 719,
    "#Pr@@": 718,
    "ck": 718,
    "clown": 718,
    "SUPPORT": 718,
    "response": 717,
    "iding": 717,
    "boo@@": 717,
    "mp@@": 717,
    "Som@@": 717,
    "er-@@": 717,
    "'S": 717,
    "q4@@": 717,
    "Tu@@": 717,
    "W9@@": 717,
    "0h@@": 717,
    "sh": 716,
    "SJ": 716,
    "atri@@": 716,
    "dot@@": 716,
    "uzz@@": 716,
    "FM@@": 716,
    "eth@@": 715,
    "kl@@": 715,
    "yes": 715,
    "flag": 715,
    "primary": 715,
    "Dou@@": 715,
    "0Q@@": 715,
    "she@@": 714,
    "ments": 714,
    "leads": 714,
    "\ud83d\ude02\ud83d\ude02\ud83d\ude02": 714,
    "mist@@": 713,
    "fund": 713,
    "nt": 713,
    "IST@@": 713,
    "Sorry": 713,
    "reveal": 713,
    "illion": 713,
    "Ques@@": 712,
    "Mag@@": 712,
    "action@@": 712,
    "Eff@@": 712,
    "Activ@@": 712,
    "\"What": 712,
    "por": 712,
    "S.": 712,
    "Some@@": 711,
    "atic": 711,
    "akes": 711,
    "won@@": 711,
    "Ig@@": 711,
    "ONE": 710,
    "kill": 709,
    "#th@@": 709,
    "three": 709,
    "orge@@": 709,
    "EB@@": 709,
    "us:": 709,
    "#Democrats": 709,
    "exposed": 709,
    "girl@@": 708,
    "friend@@": 708,
    "medi@@": 708,
    "gov@@": 708,
    "yet@@": 708,
    "W4@@": 708,
    "\ud83c\udffc": 708,
    "Al": 707,
    "Univers@@": 707,
    "home": 707,
    "ext@@": 707,
    "legal": 707,
    "leaked": 707,
    "mess@@": 706,
    "cri@@": 706,
    "racism": 706,
    "ero": 706,
    "BS": 706,
    "EV@@": 706,
    "ism:": 706,
    "\u3092@@": 706,
    "ines": 705,
    "yourself": 705,
    "loo@@": 705,
    "clo@@": 705,
    "time@@": 705,
    "ot:": 705,
    "benefits": 705,
    "Dump": 705,
    "bull@@": 704,
    "kind@@": 704,
    "ism.": 704,
    "mb@@": 704,
    "vote.": 704,
    "SC": 704,
    "FIRE@@": 704,
    "ice:": 704,
    "Cd@@": 704,
    "ature": 703,
    "bom@@": 703,
    "ed!": 703,
    "ude": 703,
    "asked": 703,
    "elly": 703,
    "65@@": 703,
    "sf@@": 703,
    "tp@@": 703,
    "#COP21@@": 703,
    "black@@": 702,
    "speci@@": 702,
    "crazy": 702,
    "ols": 702,
    "bet": 702,
    "Euro@@": 702,
    "Jf@@": 702,
    "essi@@": 701,
    "anda": 701,
    "entertain@@": 701,
    "XH@@": 701,
    "W5@@": 701,
    "wife": 700,
    "oce@@": 700,
    "commun@@": 700,
    "rich@@": 700,
    "qQ@@": 700,
    "Free": 699,
    "interest@@": 699,
    "Dam@@": 699,
    "Happy": 699,
    "did@@": 699,
    "Daily": 699,
    "35": 699,
    "anger": 699,
    "ee:": 699,
    "RK@@": 699,
    "uj@@": 698,
    "sting": 698,
    "putting": 698,
    "xx@@": 698,
    "n:": 698,
    "record:": 698,
    "#Liber@@": 697,
    "poli": 697,
    "nec@@": 697,
    "des": 697,
    "dp@@": 697,
    "z9@@": 697,
    "white@@": 697,
    "Interview": 697,
    "Still": 696,
    "summ@@": 696,
    "rom@@": 696,
    "cent": 696,
    "Christ@@": 695,
    "sca@@": 695,
    "lov@@": 695,
    "PC": 695,
    "female": 695,
    "violence": 695,
    "LM@@": 695,
    "night": 694,
    "Ah@@": 694,
    "view": 694,
    "SK@@": 694,
    "@seanhannity": 694,
    "rm@@": 694,
    "xJ@@": 694,
    "1n@@": 694,
    "#trumpforpresident": 694,
    "huge": 693,
    "share": 693,
    "inequality": 693,
    "Bri@@": 693,
    "Ty@@": 693,
    "Ux@@": 693,
    "ZZ@@": 693,
    "fk@@": 693,
    "because...": 693,
    "d.": 692,
    "bec@@": 692,
    "cep@@": 692,
    "Rel@@": 692,
    "hold@@": 692,
    "high": 692,
    "soci@@": 692,
    "safe": 692,
    "?!@@": 692,
    "YC@@": 692,
    "jw@@": 692,
    "serious@@": 691,
    "truth.": 691,
    "Girl@@": 691,
    "Emilio": 691,
    "dar@@": 690,
    "this.": 690,
    "environmental": 690,
    "stud@@": 690,
    "ons@@": 690,
    "err@@": 690,
    "warm@@": 689,
    "Miss@@": 689,
    "b2@@": 689,
    "@iam@@": 689,
    "Mu@@": 688,
    "pin@@": 688,
    "mem@@": 688,
    "itor": 688,
    "8n@@": 688,
    "Xy@@": 688,
    "reedom@@": 687,
    "govern@@": 687,
    "Min@@": 687,
    "73@@": 687,
    "Texas": 687,
    "Ww@@": 687,
    "Ix@@": 687,
    "AZ": 687,
    "25,": 687,
    "deni@@": 686,
    "GB@@": 686,
    "ously": 686,
    "President.": 686,
    "terrorism": 686,
    "JP@@": 686,
    "Iv@@": 686,
    "AV@@": 686,
    "Fam@@": 686,
    "@eliselabottcnn": 686,
    "following": 685,
    "tc@@": 685,
    "shot": 684,
    "t...": 684,
    "kx@@": 684,
    "6P@@": 684,
    "ave": 683,
    "Yes": 683,
    "#co@@": 683,
    "South": 683,
    "OUT": 683,
    "IZ@@": 683,
    "check": 683,
    "67@@": 683,
    "Wo@@": 682,
    "announces": 682,
    "#Latino": 682,
    "question@@": 681,
    "believ@@": 681,
    "ters": 681,
    "Money": 681,
    "@For@@": 681,
    "Wz@@": 681,
    "cp@@": 681,
    "\u3066@@": 681,
    "Ki@@": 680,
    "who@@": 680,
    "hx@@": 680,
    "@Bill@@": 680,
    "meat": 680,
    "@ge@@": 680,
    "Leaders": 680,
    "ense": 680,
    "YT@@": 680,
    "#Tcot": 680,
    "Hx@@": 680,
    "2Z@@": 680,
    "sing": 679,
    "ames": 679,
    "sX@@": 679,
    "0K@@": 679,
    "Buhari": 679,
    "jud@@": 678,
    "19": 678,
    "Islam@@": 678,
    "Ya@@": 678,
    "Laquan": 678,
    "all.": 677,
    "Off": 677,
    "ases": 677,
    "BV@@": 677,
    "Opinion:": 677,
    "me,": 676,
    "supp@@": 676,
    "arciss@@": 676,
    "lie@@": 676,
    "ami@@": 676,
    "Yp@@": 676,
    "though@@": 675,
    "Before": 675,
    "Hear@@": 675,
    "@Z@@": 675,
    "offensive": 675,
    "s4@@": 675,
    "vs.": 675,
    "Mus@@": 675,
    "fy@@": 675,
    "hal@@": 674,
    "Mic@@": 674,
    "Om@@": 674,
    "MC": 674,
    "cv@@": 674,
    "Bread": 674,
    "Suspended": 674,
    "47@@": 673,
    "tun@@": 673,
    "#POTUS": 673,
    "MC@@": 673,
    "AU@@": 673,
    "UU@@": 673,
    "ths": 672,
    "poli@@": 672,
    "r6@@": 672,
    "2x@@": 672,
    "#DONALDTRUMP": 672,
    "Phoenix": 672,
    "ent.": 671,
    "D!": 671,
    "Sn@@": 671,
    "billion@@": 671,
    "gK@@": 671,
    "I\u2019m": 671,
    "\u0639@@": 671,
    "ms": 670,
    "Listen": 670,
    "lex@@": 670,
    "Sex@@": 670,
    "j4@@": 670,
    "strategy": 670,
    "https://t.co/gJcCtFLgIJ": 670,
    "Pat@@": 669,
    "vu@@": 669,
    "8b@@": 669,
    "1w@@": 669,
    "Hampshire": 669,
    "Street": 668,
    "guys": 668,
    "proof": 668,
    "laugh@@": 668,
    "tire": 668,
    "TZ@@": 668,
    "#immigrants": 668,
    "Wn@@": 668,
    "J4@@": 668,
    "7z@@": 668,
    "1r@@": 668,
    "in.": 667,
    "kin": 667,
    "SN@@": 667,
    "n\u2019t": 667,
    "Rebuke": 667,
    "Turkey": 667,
    "iy@@": 666,
    "anim@@": 666,
    "S4@@": 666,
    "sends": 666,
    "LN@@": 666,
    "Gx@@": 666,
    "Eg@@": 665,
    "km@@": 665,
    "BK@@": 665,
    "XD@@": 665,
    "jO@@": 665,
    "ree": 664,
    "hottest": 664,
    "tte@@": 664,
    "A7@@": 664,
    "qz@@": 664,
    "Wow@@": 663,
    "Never": 663,
    "owing": 663,
    "Val@@": 663,
    "ht@@": 663,
    "Mr": 663,
    "Cx@@": 663,
    "big@@": 663,
    "@CronkiteSays:": 663,
    "#SC@@": 662,
    "fun": 662,
    "ama": 662,
    "international": 662,
    "fighting": 662,
    "sli@@": 662,
    "CLINTON": 662,
    "Yh@@": 662,
    "Yea@@": 661,
    "ten@@": 661,
    "Feminism@@": 661,
    "#Car@@": 661,
    "#White@@": 661,
    "Ban": 661,
    "GQ@@": 661,
    "\u0646": 661,
    "2013:": 660,
    "tten": 660,
    "Threat": 660,
    "Carson": 660,
    "Now:": 660,
    "\u306f@@": 660,
    "uli@@": 659,
    "Inf@@": 659,
    "sign@@": 659,
    "Xz@@": 659,
    "adv@@": 658,
    "Lov@@": 657,
    "feminists": 657,
    "02@@": 657,
    "gH@@": 657,
    "fv@@": 657,
    "Dm@@": 657,
    "Recently": 657,
    "\u062f@@": 657,
    "possible": 656,
    "rist@@": 656,
    "ler": 656,
    "ch:": 656,
    "@Al@@": 655,
    "lives": 655,
    "nation": 655,
    "insul@@": 655,
    "bir@@": 655,
    "ining": 655,
    "@U@@": 655,
    "HQ@@": 655,
    "Q7@@": 655,
    "#Donaldtrump": 655,
    "#teaparty": 655,
    "Ry@@": 655,
    "izes": 655,
    "Talk": 655,
    "#Un@@": 654,
    "Federal": 654,
    "stance": 654,
    "others": 653,
    "That@@": 653,
    "claim": 653,
    "@ny@@": 653,
    "Part": 653,
    "close": 653,
    "q5@@": 653,
    "q8@@": 653,
    "#abortion": 653,
    "orr@@": 652,
    "100": 652,
    "tional": 652,
    "rr@@": 652,
    "LA": 652,
    "proves": 652,
    "Letterman": 652,
    "Sunday": 651,
    "ward@@": 651,
    "becomes": 651,
    "Getting": 651,
    "@e@@": 651,
    "@ABC@@": 651,
    "entire": 651,
    "Tex@@": 651,
    "#JebBush@@": 651,
    "mexic@@": 651,
    "blog@@": 651,
    "OF@@": 651,
    "WM@@": 651,
    "he'll": 651,
    "ler@@": 651,
    "U9@@": 651,
    "Shar@@": 650,
    "#GOPClownCar": 650,
    "group": 650,
    "embarrass@@": 650,
    "Iran": 650,
    "towards": 649,
    "thers": 649,
    "polic@@": 649,
    "servatives": 649,
    "pL@@": 649,
    "WV@@": 649,
    "h:": 649,
    "prove": 648,
    "book": 648,
    "#America@@": 648,
    "disast@@": 648,
    "They're": 648,
    "pub@@": 648,
    "HV@@": 648,
    "1Q@@": 648,
    "Russi@@": 648,
    "Shows": 648,
    "ei@@": 647,
    "#An@@": 647,
    "farm@@": 647,
    "Hope": 647,
    "tired": 647,
    "RR@@": 647,
    "Trumps": 646,
    "ande": 646,
    "Sol@@": 646,
    "change!": 646,
    "Admits": 646,
    "religion": 645,
    "omin@@": 645,
    "#": 645,
    "em": 645,
    "mitigation": 645,
    "GO": 645,
    "2N@@": 645,
    "MZ": 645,
    "IP@@": 645,
    "C:": 645,
    "letter": 645,
    "Sal@@": 644,
    "shouldn't": 644,
    "fiel@@": 644,
    "mee@@": 644,
    "rer@@": 644,
    "Paul@@": 644,
    "db@@": 644,
    "http://t.co/DQBbjKBPkL": 644,
    "Life@@": 643,
    "leas@@": 643,
    "discuss": 643,
    "Clinton?": 643,
    "2X@@": 643,
    "jn@@": 643,
    "worth@@": 642,
    "happy": 642,
    "Fund@@": 642,
    "WOR@@": 642,
    "Y5@@": 642,
    "bia": 642,
    "constitu@@": 641,
    "istor@@": 641,
    "pro-@@": 641,
    "ital": 641,
    "fK@@": 641,
    "q6@@": 641,
    "Fm@@": 641,
    "turning": 640,
    "pok@@": 640,
    "nice": 640,
    "pen@@": 640,
    "**@@": 640,
    "2V@@": 640,
    "Hl@@": 640,
    "#MexicanPower": 640,
    "challenge": 639,
    "Then": 639,
    "ped": 639,
    "Mike": 639,
    "murde@@": 639,
    "gy@@": 639,
    "large": 639,
    "Come": 638,
    "fel@@": 638,
    "ing\"": 638,
    "address": 638,
    "87@@": 638,
    "@thehill": 638,
    "1p@@": 638,
    "bX@@": 638,
    "#ClimateMarch": 638,
    "\u0647@@": 638,
    "negative": 637,
    "smart": 637,
    "aire": 637,
    "clin@@": 637,
    "strikes": 637,
    "continue": 636,
    "ust": 636,
    "ams": 636,
    "conv@@": 636,
    "sick": 636,
    "ativ@@": 636,
    "Jeb@@": 636,
    "GG@@": 636,
    "immigrants.": 636,
    "changes": 636,
    "\u201d@@": 636,
    "MK@@": 636,
    "#DontVoteforTrump": 636,
    "soon": 635,
    "tes": 635,
    "journ@@": 635,
    "WC@@": 635,
    "iting": 635,
    "a5@@": 635,
    "Jl@@": 635,
    "#Immigration@@": 634,
    "Secretary": 634,
    "#gunsense": 634,
    "#TNTweeters": 634,
    "bankrup@@": 634,
    "#Celebrity@@": 634,
    "c5@@": 634,
    "jr@@": 634,
    "chur@@": 633,
    "iss": 633,
    "seriously": 633,
    "miss": 633,
    "Los@@": 633,
    "BN@@": 633,
    "MQ@@": 633,
    "I9@@": 633,
    "learn": 632,
    "progress": 632,
    "ic,": 632,
    "WW@@": 632,
    "@realdonaldtrump": 632,
    "qZ@@": 632,
    "#MasPuto": 632,
    "self@@": 631,
    "ster@@": 631,
    "role": 631,
    "6B@@": 631,
    "building": 630,
    "arc@@": 630,
    "HK@@": 630,
    "Hillary\u2019s": 630,
    "ower": 629,
    "eless": 629,
    "driv@@": 629,
    "IG@@": 629,
    "Perry": 629,
    "Worked": 629,
    "pur@@": 628,
    "rise": 628,
    "Eng@@": 628,
    "Health": 628,
    "acking": 628,
    "Gender": 628,
    "Lad@@": 628,
    "Hillary:": 628,
    "Jenner": 628,
    "attend": 628,
    "kK@@": 628,
    "dT@@": 628,
    "Lol": 627,
    "otes": 627,
    "pet@@": 627,
    "Word": 627,
    "ious": 627,
    "LIVE": 627,
    "Use": 627,
    "kC@@": 627,
    "JZ@@": 627,
    "Y:": 627,
    "\u00f1@@": 627,
    "Wait": 627,
    "ere": 626,
    "\u3068@@": 626,
    "eath@@": 625,
    "you'll": 625,
    "ames@@": 625,
    "ica": 625,
    "VO@@": 625,
    "DT@@": 625,
    "tL@@": 625,
    "WASHINGTON": 625,
    "Nor@@": 624,
    "each": 624,
    "@Chris@@": 624,
    "Doc@@": 624,
    "inte@@": 624,
    "Av@@": 624,
    "trav@@": 624,
    "protest": 623,
    "tain": 623,
    "speech@@": 623,
    "Ruth_Blane:": 623,
    "Follow@@": 623,
    "drop": 623,
    "ines@@": 623,
    "Laugh@@": 623,
    "Twi@@": 623,
    "blames": 623,
    "@RandPaul:": 623,
    "fir@@": 622,
    "NOW": 622,
    "busin@@": 622,
    "Yw@@": 622,
    "e\u2026": 622,
    "actu@@": 622,
    "0R@@": 622,
    "I2@@": 622,
    "IDORA:": 622,
    "fav@@": 621,
    "fossil": 621,
    "oz@@": 621,
    "ency": 621,
    "ounc@@": 621,
    "Sen@@": 621,
    "Qm@@": 621,
    "qq@@": 621,
    "\u0430@@": 621,
    "77:": 621,
    "future:": 621,
    "ching": 620,
    "C0@@": 620,
    "ades": 620,
    "light": 619,
    "fall@@": 619,
    "spe@@": 619,
    "escap@@": 619,
    "ers?": 619,
    "boycott": 619,
    "kU@@": 619,
    "JE@@": 619,
    "CH": 619,
    "want@@": 618,
    "@Dr@@": 618,
    "unch": 618,
    "school": 618,
    "popul@@": 618,
    "adapt": 618,
    "49@@": 618,
    "del": 618,
    "ested": 618,
    "NU@@": 618,
    "http@@": 618,
    "pm@@": 618,
    "TK@@": 618,
    "da": 617,
    "mad@@": 617,
    "leadership": 617,
    "arth@@": 617,
    "advis@@": 617,
    "includ@@": 617,
    "st.": 617,
    "Stor@@": 617,
    "XX@@": 617,
    "OUR": 617,
    "bn": 616,
    "ance.": 616,
    "Canada": 616,
    "div@@": 616,
    "arl@@": 616,
    "girls": 616,
    "Ser@@": 616,
    "late": 616,
    "Win": 616,
    "d5@@": 616,
    "Xv@@": 616,
    "a-@@": 616,
    "motion": 616,
    "cy@@": 615,
    "needed": 615,
    "gres@@": 615,
    "lets": 615,
    "recent": 615,
    "k7@@": 615,
    "slog@@": 615,
    "Gn@@": 615,
    "pv@@": 615,
    "Nothing": 614,
    "bri@@": 614,
    "Rad@@": 614,
    "1Z@@": 614,
    "America's": 614,
    "qK@@": 614,
    "Koch": 614,
    "#pro@@": 613,
    "impact": 613,
    "ances": 613,
    "or,": 613,
    "No,": 613,
    "sH@@": 613,
    "ight:": 613,
    "p3@@": 613,
    "6j@@": 613,
    "ving": 612,
    "oul@@": 612,
    "bit@@": 612,
    "religious": 612,
    "night@@": 612,
    "Pageant": 612,
    "\ud83d\ude02\ud83d\ude02@@": 612,
    "Hel@@": 611,
    "aks": 611,
    "BER@@": 611,
    "artic@@": 611,
    "G5@@": 611,
    "African": 610,
    "exc@@": 610,
    "#MSNBC": 610,
    "statements": 610,
    "date": 610,
    "Republic@@": 610,
    "IY@@": 610,
    "wasn't": 609,
    "current": 609,
    "nations": 609,
    "started": 609,
    "vious": 609,
    "it?": 609,
    "??@@": 609,
    "LET'S": 609,
    "Steven": 609,
    "AY@@": 608,
    "anned": 608,
    "Justice": 608,
    "Wv@@": 608,
    "Q5@@": 608,
    "Mexicans.": 608,
    "Good@@": 607,
    "handle": 607,
    "claim@@": 607,
    "Sec@@": 607,
    "across": 607,
    "Live": 607,
    "iles": 607,
    "inmigran@@": 607,
    "Dl@@": 607,
    "Ct@@": 607,
    "const@@": 606,
    "Tri@@": 606,
    "WAR@@": 606,
    "funny": 606,
    "sev@@": 606,
    "protest@@": 606,
    "cB@@": 606,
    "racist@@": 606,
    "Stewart": 606,
    "Qr@@": 606,
    "FS@@": 606,
    "Rights": 605,
    "dat@@": 605,
    "dumb": 605,
    "ic:": 605,
    "Mw@@": 605,
    "Wx@@": 605,
    "#BoycottNBC": 605,
    "\"You": 604,
    "esses": 604,
    "who's": 604,
    "enn@@": 604,
    "#2016@@": 604,
    "9j@@": 604,
    "edly": 604,
    "lam": 603,
    "wanna": 603,
    "AH@@": 603,
    "izing": 603,
    "fix": 603,
    "#Th@@": 603,
    "winning": 603,
    "cand@@": 603,
    "R7@@": 603,
    "Hypo@@": 603,
    "Jc@@": 603,
    "43@@": 603,
    "Target": 603,
    "bus@@": 602,
    "America!": 602,
    "lor@@": 602,
    "politici@@": 602,
    "NH@@": 602,
    "DK@@": 602,
    "\ud83d\ude02@@": 602,
    "US:": 602,
    "Study": 602,
    "@FactsOnClimate:": 602,
    "condem@@": 601,
    "despite": 601,
    "198@@": 601,
    "N0@@": 601,
    "Glo@@": 601,
    "\u00e0": 601,
    "barack": 601,
    "illy": 600,
    "saw": 600,
    "dh@@": 600,
    "tf@@": 600,
    "attention": 600,
    "y'": 600,
    "FP@@": 600,
    "jb@@": 600,
    "gV@@": 600,
    "#miss@@": 599,
    "ocument@@": 599,
    "ant.": 599,
    "invest@@": 599,
    "Standoff": 599,
    "clim\u2026": 599,
    "day,": 598,
    "#Gre@@": 598,
    "gw@@": 598,
    "q1@@": 598,
    "Year@@": 598,
    "econom@@": 597,
    "predic@@": 597,
    "z5@@": 597,
    "period": 597,
    "#tlot": 596,
    "pol@@": 596,
    "Fri@@": 596,
    "interview@@": 596,
    "sK@@": 596,
    "again!": 596,
    "@ben@@": 596,
    "NEW@@": 596,
    "42@@": 595,
    "promis@@": 595,
    "Real@@": 595,
    "honest": 595,
    "Network": 595,
    "Who's": 595,
    "#foxnews": 595,
    "Qh@@": 595,
    "mx@@": 595,
    "Ann@@": 594,
    "Mer@@": 594,
    "ress": 594,
    "ing'": 594,
    "&gt;HiLLARY=2016&gt;": 594,
    "'t": 593,
    "Really": 593,
    "ross": 593,
    "Group": 593,
    "concern": 593,
    "Ap@@": 593,
    "Iran@@": 593,
    "Nov@@": 593,
    "presidente": 593,
    "FY@@": 592,
    "remember": 592,
    "fer@@": 592,
    "fy": 592,
    "6v@@": 592,
    "\u043e@@": 592,
    "com:": 592,
    "@roqchams:": 592,
    "NowPH_org": 592,
    "olf@@": 591,
    "TER@@": 591,
    "prim@@": 591,
    "tax@@": 591,
    "demand": 591,
    "FEMIN@@": 591,
    "@msnbc": 591,
    "Bc@@": 591,
    "Uf@@": 591,
    "OTUS": 590,
    "kes": 590,
    "ered": 590,
    "#Rick@@": 590,
    "lT@@": 590,
    "Tl@@": 590,
    "me:": 590,
    "est:": 590,
    "out!": 589,
    "respond@@": 589,
    ";)": 589,
    "@Atheist_Roo": 589,
    "P9@@": 589,
    "intersectional": 589,
    "mental": 588,
    "Sl@@": 588,
    "uted": 588,
    "'T": 588,
    "bx@@": 588,
    "Post@@": 588,
    "break": 587,
    "bit": 587,
    "000": 587,
    "Since": 587,
    "Ih@@": 587,
    "U3@@": 587,
    "ae@@": 587,
    "Amendment": 586,
    "opportunity": 586,
    "Next": 586,
    "y\"": 586,
    "#Li@@": 586,
    "PL@@": 586,
    "RE": 586,
    "yO@@": 586,
    "dumped": 586,
    "Hc@@": 586,
    "\ud83c\uddfa\ud83c\uddf8@@": 586,
    "Voters": 586,
    "F5@@": 586,
    "inner": 585,
    "rely": 585,
    "JX@@": 585,
    "Bf@@": 585,
    "dies": 584,
    "control@@": 584,
    "Pri@@": 584,
    "#Republican@@": 584,
    "drops": 584,
    "Ir@@": 584,
    "organ@@": 584,
    "said@@": 583,
    "excited": 583,
    "@ClimateReality:": 583,
    "ok": 583,
    "ills": 583,
    "NH": 583,
    "Fx@@": 583,
    "uproar": 583,
    "personal": 582,
    "rying": 582,
    "Follow": 582,
    "Christie": 582,
    "annity": 582,
    "TD@@": 582,
    "ew": 582,
    "N3@@": 582,
    "accep@@": 581,
    "now!": 581,
    "s9@@": 581,
    "#Immigration": 581,
    "qw@@": 581,
    "JC@@": 581,
    "loc": 581,
    "provokes": 581,
    "ALDUB": 581,
    "YOUR": 580,
    "marriage": 580,
    "#Y@@": 580,
    "ooks": 580,
    "Fron@@": 580,
    "ia:": 580,
    "West": 580,
    "qX@@": 580,
    "Ce@@": 580,
    "J5@@": 580,
    "#Phoenix": 580,
    "anti@@": 579,
    "cover@@": 579,
    "Plan@@": 579,
    "#HeForShe": 579,
    "#ChrisChristie": 579,
    "had@@": 579,
    "q7@@": 579,
    "Dru@@": 579,
    "Funder": 579,
    "XCX": 579,
    "Sup@@": 578,
    "non@@": 578,
    "sugg@@": 578,
    "Mac@@": 578,
    "actions": 578,
    "Vp@@": 578,
    "LP@@": 578,
    "nat'l": 578,
    "Low:": 578,
    "ook": 577,
    "hi": 577,
    "Organ@@": 577,
    "rown": 577,
    "rally": 577,
    "\u00a1@@": 577,
    "#r@@": 576,
    "lic": 576,
    "bon@@": 576,
    "#Vote@@": 576,
    "Ey@@": 576,
    "Mj@@": 576,
    "A9@@": 576,
    "EE.@@": 576,
    "Yx@@": 576,
    "aur@@": 575,
    "reasons": 575,
    "lain": 575,
    "hates": 575,
    "society": 575,
    "race@@": 575,
    "Sk@@": 575,
    "Ji@@": 575,
    "dw@@": 575,
    "PART": 575,
    "Medalla": 575,
    "@PolToons:": 575,
    "half": 574,
    "climate-@@": 574,
    "fur@@": 574,
    "soli@@": 574,
    "Wil@@": 574,
    "t9@@": 574,
    "Rm@@": 574,
    "EK@@": 574,
    "opens": 574,
    "High:": 574,
    "industry:": 574,
    "govts": 574,
    "en,": 573,
    "wond@@": 573,
    "ini@@": 573,
    "IL": 573,
    "tter.": 573,
    "While": 573,
    "int": 573,
    "criminal": 573,
    "Got": 573,
    "@AnnCoulter": 573,
    "&amp;#@@": 573,
    "Rw@@": 573,
    "maintains": 573,
    "age.": 572,
    "IK@@": 572,
    "#racism": 572,
    "able.": 572,
    "27": 572,
    "ed?": 572,
    "comb@@": 572,
    "Bab@@": 572,
    "b9@@": 572,
    "near": 572,
    "7K@@": 572,
    "B6@@": 572,
    "Mobil": 572,
    "themselves": 571,
    "Can@@": 571,
    "EU": 571,
    "OR": 571,
    "Hil@@": 571,
    "@Te@@": 571,
    "Nh@@": 571,
    "Qz@@": 571,
    "Fiddled": 571,
    "mean@@": 570,
    "friend": 570,
    "responsible": 570,
    "Way": 570,
    "b/c": 570,
    "Head@@": 570,
    "Chicago": 570,
    "jc@@": 570,
    "CHANGE@@": 570,
    "is,": 569,
    "bt": 569,
    "choic@@": 569,
    "rog@@": 569,
    "mel@@": 569,
    "Ze@@": 569,
    "pi\u00f1@@": 569,
    "down.": 569,
    "gI@@": 569,
    "DO": 568,
    "gent@@": 568,
    "@Rick@@": 568,
    "class": 568,
    "Ul@@": 568,
    "#jesus": 568,
    "ains": 568,
    "0m@@": 568,
    "2p@@": 568,
    "impt": 568,
    "Sends": 568,
    "#k@@": 567,
    "in,": 567,
    "office": 567,
    "Poor": 567,
    "C3@@": 567,
    "ICE@@": 567,
    "#16days": 567,
    "BC": 566,
    "majority": 566,
    "ed\"": 566,
    "@TIME@@": 566,
    "Exec": 566,
    "ker@@": 566,
    "NATION!": 566,
    "17": 565,
    "ody": 565,
    "#Hispan@@": 565,
    "@pe@@": 565,
    "bigger": 565,
    "Ber@@": 565,
    "1v@@": 565,
    "apo@@": 565,
    "Tax": 565,
    "Mike@@": 564,
    "stre@@": 564,
    "CK": 564,
    "uch": 564,
    "PE@@": 564,
    "Xw@@": 564,
    "Wg@@": 564,
    "GK@@": 564,
    "Justin": 564,
    "pard@@": 564,
    "THIS!!": 564,
    "@SiJecjecKo:": 564,
    "time.": 563,
    "More@@": 563,
    "fuck@@": 563,
    "sim@@": 563,
    "feminist.": 563,
    "Club": 563,
    "email": 563,
    "ucus": 563,
    "Cas@@": 563,
    "ird": 563,
    "Ox@@": 563,
    "dc@@": 563,
    "U8@@": 563,
    "@theblaze:": 563,
    "#the@@": 562,
    "exist@@": 562,
    "wrong@@": 562,
    "Suc@@": 562,
    "#TheDonald": 562,
    "@bill@@": 562,
    "AMERICA": 562,
    "oci@@": 562,
    "Yl@@": 562,
    "zp@@": 562,
    "jm@@": 562,
    "7x@@": 562,
    "cover": 561,
    "sav@@": 561,
    "Sent": 561,
    "Qw@@": 561,
    "Castro": 561,
    "scien@@": 560,
    "trust@@": 560,
    "solar": 560,
    "People@@": 560,
    "@HuffPostPol": 560,
    "#uniteblue": 560,
    "@us@@": 560,
    "bz@@": 560,
    "NP@@": 560,
    "\",": 560,
    "Independ@@": 560,
    "Suppor@@": 560,
    "Who@@": 559,
    "#health@@": 559,
    "Freedom": 559,
    "ces": 559,
    "Ren@@": 559,
    "So,": 559,
    "consid@@": 559,
    "Jon@@": 559,
    "YH@@": 559,
    "L9@@": 559,
    "@gr@@": 559,
    "heart@@": 558,
    "different": 558,
    "Deb@@": 558,
    "DR@@": 558,
    "Rec@@": 558,
    "Rubio@@": 558,
    "MB@@": 558,
    "kF@@": 558,
    "ild": 558,
    "S5@@": 558,
    "Threatens": 558,
    "contribute": 558,
    "Libertad": 558,
    "Him": 557,
    "Reg@@": 557,
    "illing": 557,
    "doubt": 557,
    "fan": 557,
    "SO": 557,
    "facts": 557,
    "force": 557,
    "deserve": 557,
    "in's": 557,
    "cas@@": 557,
    "69": 557,
    "ization": 557,
    "Suing": 557,
    "ebook": 557,
    "L4@@": 557,
    "29": 557,
    "LZ@@": 557,
    "Ris@@": 557,
    ").": 556,
    "reach": 556,
    "fully": 556,
    "ese": 556,
    "Yr@@": 556,
    "Created": 556,
    "'.": 555,
    "questions": 555,
    "dangerous": 555,
    "forget": 555,
    "day.": 555,
    "ping": 555,
    "express": 555,
    "Bea@@": 555,
    "affect": 555,
    "Cuts": 555,
    "fired!\"": 555,
    "dg@@": 555,
    "W0@@": 555,
    "M8@@": 555,
    "T9@@": 555,
    "Hol@@": 554,
    "reci@@": 554,
    "auth@@": 554,
    "ashi@@": 554,
    "raph@@": 554,
    "Sant@@": 554,
    "crime": 554,
    "ridicul@@": 554,
    "68@@": 554,
    "Bz@@": 554,
    "afraid.": 554,
    "@wanderingmeekay:": 554,
    "#cdnpoli": 553,
    "right?": 553,
    "deser@@": 553,
    "atu@@": 553,
    "@Mark@@": 553,
    "uters": 553,
    "Hom@@": 553,
    "#GlobalWarming": 553,
    "Tx@@": 553,
    "2K@@": 553,
    "j1@@": 553,
    "ent:": 553,
    "super@@": 552,
    "ous.": 552,
    "ink": 552,
    "SV@@": 552,
    "grand@@": 552,
    "REAL@@": 552,
    "ni": 552,
    "abortion.": 552,
    "ban@@": 552,
    "#buzz": 552,
    "X8@@": 552,
    "T3@@": 552,
    "But@@": 552,
    "7n@@": 552,
    "Wisconsin": 552,
    "https://t.co/vYgqjXfOh9": 552,
    "more.": 551,
    "CA": 551,
    "RN@@": 551,
    "#Obama@@": 551,
    "#sp@@": 551,
    "Mx@@": 551,
    "NAS@@": 551,
    "\u00e4@@": 551,
    "eful@@": 550,
    "gar@@": 550,
    "oler@@": 550,
    "reduce": 550,
    "#Trump2016.": 550,
    "ton:": 550,
    "Lx@@": 550,
    "ess:": 550,
    "$500": 550,
    "Lindsey": 550,
    "@david@@": 549,
    "ding": 549,
    "ink@@": 549,
    "etc@@": 549,
    "exactly": 549,
    "IC": 549,
    "elect@@": 549,
    "#eyebalz": 549,
    "q3@@": 549,
    "https://t.co/wESd09XiC0": 549,
    "pped": 548,
    "Today@@": 548,
    "'s.": 548,
    "t-@@": 548,
    "investig@@": 548,
    "Secre@@": 548,
    "GHT": 548,
    "republic@@": 548,
    "Y0@@": 548,
    "#Arizona": 548,
    "TRUTH@@": 547,
    "bus": 547,
    "embers": 547,
    "listen": 547,
    "Cur@@": 547,
    "#no@@": 547,
    "Bb@@": 547,
    "dropping": 547,
    "qx@@": 547,
    "\u3063@@": 547,
    "d,": 546,
    "today.": 546,
    "crisy": 546,
    "ol": 546,
    "#1": 546,
    "long@@": 546,
    "politician": 546,
    "IA@@": 546,
    "lorida": 546,
    "k9@@": 546,
    "Apprentic@@": 546,
    "Zz@@": 546,
    "\ud83d\ude4c\ud83c\udffc@@": 546,
    "crimin@@": 545,
    "Anyone": 545,
    "met": 545,
    "House@@": 545,
    "ume": 545,
    "SG@@": 545,
    "Jm@@": 545,
    "and:": 545,
    "N\u2026": 545,
    "Del@@": 544,
    "kr@@": 544,
    "YV@@": 544,
    "2L@@": 544,
    "nr@@": 544,
    "gm@@": 544,
    "#Atheist": 544,
    "\u30f3@@": 544,
    "ece": 543,
    "clos@@": 543,
    "total": 543,
    "GX@@": 543,
    "7o@@": 543,
    "G4@@": 543,
    "QK@@": 543,
    "ural": 542,
    "_V@@": 542,
    "ze": 542,
    "@am@@": 542,
    "Speaking": 542,
    "Gw@@": 542,
    "Wednes@@": 542,
    "donald": 542,
    "Bh@@": 542,
    "Expos@@": 542,
    "arto@@": 542,
    "SPREAD": 542,
    "Macys": 542,
    "Politico@@": 542,
    "#TrumpInPHX": 542,
    "pow@@": 541,
    "establishment": 541,
    "dv@@": 541,
    "research": 541,
    "MAN@@": 541,
    "1K@@": 541,
    "1.@@": 540,
    "rhetor@@": 540,
    "Wom@@": 540,
    "bh@@": 540,
    "Public@@": 540,
    "Wf@@": 540,
    "ABC": 540,
    "jf@@": 540,
    "endorsement": 540,
    "\u00a3@@": 540,
    "Exx@@": 540,
    "decision": 539,
    "tv": 539,
    "Need": 539,
    "Future": 539,
    "song": 539,
    "minut@@": 539,
    "Hillary?": 539,
    "resul@@": 539,
    "s3@@": 539,
    "ists@@": 539,
    "\ud83c\udffc@@": 539,
    "network": 539,
    "qe@@": 539,
    "#usa": 539,
    "0:": 539,
    "vil": 538,
    "based": 538,
    "realize": 538,
    "#un@@": 538,
    "tta": 538,
    "Things": 538,
    "T4@@": 538,
    "@Just@@": 538,
    "vag@@": 538,
    "t\"": 538,
    "7l@@": 538,
    "jv@@": 538,
    "Race": 538,
    "4:": 538,
    "Gf@@": 538,
    "dK@@": 538,
    "lk": 538,
    "AWARENESS!": 538,
    "community": 537,
    "deli@@": 537,
    "folks": 537,
    "@ab@@": 537,
    "up!": 537,
    "ISIS.": 537,
    "RC@@": 537,
    "Democrat": 537,
    "workers": 537,
    "Ins@@": 537,
    "#mexico": 537,
    "Aliens": 537,
    "qf@@": 537,
    "VE:": 537,
    "five-year": 537,
    "#Ask@@": 536,
    "Ak@@": 536,
    "inal": 536,
    "gs": 536,
    "eci@@": 536,
    "birth": 536,
    "1m@@": 536,
    "@masha@@": 536,
    "NY": 536,
    "@thehill:": 536,
    "LH@@": 536,
    "Modi": 536,
    "isi@@": 535,
    "planet": 535,
    "e_@@": 535,
    "male": 535,
    "federal": 535,
    "Contro@@": 535,
    "Mom@@": 535,
    "#mexic@@": 535,
    "candidat@@": 535,
    "jP@@": 535,
    "zx@@": 535,
    "Eu@@": 535,
    "#God": 534,
    "becoming": 534,
    "stop@@": 534,
    "ights": 534,
    "Any": 534,
    "intellig@@": 534,
    "discus@@": 534,
    "mes": 534,
    "Foundation": 534,
    "df@@": 534,
    "#Jo@@": 534,
    "jV@@": 534,
    "\ud83d\ude2d@@": 534,
    "page@@": 534,
    "nv@@": 534,
    "comments.": 534,
    "Yi@@": 534,
    "RD@@": 534,
    "EVER@@": 533,
    "nation@@": 533,
    "level": 533,
    "era": 533,
    "rank@@": 533,
    "aging": 533,
    "S.@@": 533,
    "information": 533,
    "company": 533,
    "jX@@": 533,
    "Q9@@": 533,
    "Brit@@": 533,
    "B3@@": 533,
    "-&gt;": 533,
    "Scientists": 533,
    "Dawkins": 532,
    "seeing": 532,
    "fake": 532,
    "pag@@": 532,
    "Chris": 532,
    "Jews": 532,
    "W3@@": 532,
    "Hispan@@": 532,
    "aring": 532,
    "JN@@": 532,
    "1l@@": 532,
    "ince@@": 532,
    "YM@@": 532,
    "FD@@": 532,
    "End@@": 532,
    "Tees!": 532,
    "Rebuke@@": 532,
    "Many": 531,
    "sto@@": 531,
    "nature.": 531,
    "reas@@": 531,
    "Net@@": 531,
    "itch": 531,
    "Pal@@": 531,
    "UE@@": 531,
    "Sel@@": 531,
    "Yb@@": 531,
    "A0@@": 531,
    "FZ@@": 531,
    "Officially": 531,
    "foot@@": 530,
    "cept": 530,
    "23": 530,
    "Believe": 530,
    "comment": 530,
    "Political": 530,
    "Fw@@": 530,
    "jx@@": 530,
    "7w@@": 530,
    "allow": 529,
    "ld": 529,
    "there@@": 529,
    "problems": 529,
    "OX@@": 529,
    "pregn@@": 529,
    "#Dem@@": 529,
    "arry@@": 529,
    "J9@@": 529,
    "Y4@@": 529,
    "VC@@": 529,
    "Chapo": 529,
    "moment": 528,
    "press@@": 528,
    "@a@@": 528,
    "ruc@@": 528,
    "Night@@": 528,
    "_W@@": 528,
    "Demand": 528,
    "cx@@": 528,
    "gZ@@": 528,
    "Q3@@": 528,
    "L5@@": 528,
    "ami": 527,
    "ops": 527,
    "TN@@": 527,
    "CP@@": 527,
    "military": 527,
    "WU@@": 527,
    "OH@@": 527,
    "#Sy@@": 527,
    "Prince": 527,
    "Steinle": 527,
    "#i@@": 526,
    "ings@@": 526,
    "Sus@@": 526,
    "8i@@": 526,
    "O1@@": 526,
    "Rx@@": 526,
    "Terrorists": 526,
    "greatest": 525,
    "ank": 525,
    "ider": 525,
    "#ConfederateFlag": 525,
    "kc@@": 525,
    "xp@@": 525,
    "6Z@@": 525,
    "Taking": 525,
    "Groups-on": 525,
    "earth@@": 524,
    "Resp@@": 524,
    "trou@@": 524,
    "traditional": 524,
    "continues": 524,
    "went": 524,
    "eve": 524,
    "Message": 524,
    "LK@@": 524,
    "Agenda": 524,
    "6p@@": 524,
    "rece@@": 523,
    "though": 523,
    "alis@@": 523,
    "@NBCNews": 523,
    "uni@@": 523,
    "vr@@": 523,
    "elli@@": 523,
    "DV@@": 523,
    "Major": 523,
    "Military": 523,
    "det@@": 523,
    "challeng@@": 523,
    "Fy@@": 523,
    "2o@@": 523,
    "f0@@": 523,
    "ular": 522,
    "Libert@@": 522,
    "uba": 522,
    "Care@@": 522,
    "http:/@@": 522,
    "\u00e1": 522,
    "Fn@@": 522,
    "Candidate": 522,
    "8Z@@": 522,
    "Wl@@": 522,
    "#COP21:": 522,
    "#Mexican@@": 521,
    "USA!": 521,
    "hour@@": 521,
    "waiting": 521,
    "#NY@@": 521,
    "LD": 521,
    "Americans@@": 521,
    "bK@@": 521,
    "Qx@@": 521,
    "BM@@": 521,
    "Qy@@": 521,
    "Politics:": 521,
    "issi@@": 520,
    "president,": 520,
    "eu@@": 520,
    "eds": 520,
    "bes": 520,
    "sco@@": 520,
    "TRUTH": 520,
    "#TeaParty": 520,
    "Oc@@": 520,
    "review": 520,
    "UC@@": 520,
    "q0@@": 520,
    "WX@@": 520,
    "#TrumpForPresident": 520,
    "S9@@": 520,
    "What\u2019s": 520,
    "Policy": 520,
    "#stop@@": 519,
    "OZ@@": 519,
    "Jy@@": 519,
    "Ym@@": 519,
    "Finally": 519,
    "sour@@": 519,
    "res:": 519,
    "@Atheist_Eh": 519,
    "focus": 518,
    "happen": 518,
    "ateful": 518,
    "ced": 518,
    "reading": 518,
    "groups": 518,
    "GA": 518,
    "Cal@@": 518,
    "how@@": 518,
    "correct": 518,
    "tries": 518,
    "OV@@": 518,
    "me?": 518,
    "Again": 518,
    "Gm@@": 518,
    "#MexicanImmigrants": 518,
    "Foc@@": 518,
    "French": 518,
    "Email": 518,
    "Change?": 518,
    "\u3059@@": 518,
    "zy": 517,
    "Iw@@": 517,
    "_T@@": 517,
    "abili@@": 517,
    "GD@@": 517,
    "tackle": 517,
    "@News@@": 517,
    "fem@@": 517,
    "Fight": 517,
    "dru@@": 517,
    "R9@@": 517,
    "#Illegals": 517,
    "@CNNPolitics": 517,
    "m5@@": 517,
    "\u0435@@": 517,
    "bn@@": 517,
    "acys": 517,
    "rebuke@@": 517,
    "@AlDubBarkads:": 517,
    "ony@@": 516,
    "@De@@": 516,
    "2r@@": 516,
    "hw@@": 516,
    "minRead": 516,
    "nasty": 516,
    "1y@@": 516,
    "Day@@": 515,
    "featured": 515,
    "itt": 515,
    "opening": 515,
    "dx@@": 515,
    "ux@@": 515,
    "#Trumpforpresident": 515,
    "zr@@": 515,
    "#BillCosby": 515,
    "Congress": 515,
    "rick@@": 514,
    "O'@@": 514,
    "energ@@": 514,
    "efforts": 514,
    "Problem": 514,
    "money,": 514,
    "Talk@@": 514,
    "co:": 514,
    "Offic@@": 514,
    "ors@@": 513,
    "thre@@": 513,
    "@Paul@@": 513,
    "ico@@": 513,
    "#cop21": 513,
    "system": 513,
    "za@@": 513,
    "mas@@": 513,
    "bC@@": 513,
    "Gen@@": 513,
    "YK@@": 513,
    "qH@@": 513,
    "IsThe@@": 513,
    "tion,": 512,
    "ecting": 512,
    "1/@@": 512,
    "cott": 512,
    "AM": 512,
    "Looks": 512,
    "Every@@": 512,
    "flood@@": 512,
    "shir@@": 512,
    "RA": 512,
    "Camp": 512,
    "os.": 512,
    "ix@@": 512,
    "\u0438@@": 512,
    "Jw@@": 512,
    "nearly": 512,
    "one:": 512,
    "IF@@": 511,
    "destroy": 511,
    "@Reince": 511,
    "voted": 511,
    "POR@@": 511,
    "right!": 511,
    "Dem": 511,
    "0.@@": 511,
    "q2@@": 511,
    "lock@@": 511,
    "G8@@": 511,
    "\ud83d\udc4d@@": 511,
    "g's": 511,
    "UK:": 511,
    "https://t.co/mRrEPwnGyy": 511,
    "amed": 510,
    "@fox@@": 510,
    "usa": 510,
    "ember": 510,
    "Pro-@@": 510,
    "#Univision@@": 510,
    "https://t.co/w1\u2026": 510,
    "#Team@@": 509,
    "food": 509,
    "ledge": 509,
    "survi@@": 509,
    "acting": 509,
    "#Miss@@": 509,
    "Gb@@": 509,
    "Bord@@": 509,
    "dV@@": 509,
    "Pv@@": 509,
    "ews": 509,
    "#Mar@@": 508,
    "How@@": 508,
    "asking": 508,
    "ston": 508,
    "Hilary": 508,
    "@re@@": 508,
    "boy": 508,
    "Lz@@": 508,
    "FX@@": 508,
    "\u0131": 508,
    "yed": 507,
    "g6@@": 507,
    "ites": 507,
    "Qf@@": 507,
    "Bw@@": 507,
    "W7@@": 507,
    "tx@@": 507,
    "qm@@": 507,
    "sC@@": 507,
    "hearing": 506,
    "Red@@": 506,
    "#Gun@@": 506,
    "FAC@@": 506,
    "flo@@": 506,
    "dro@@": 506,
    "emplo@@": 506,
    "DAY": 506,
    "annah@@": 506,
    "GC@@": 506,
    "D3@@": 506,
    "Know": 505,
    "city": 505,
    "equal": 505,
    "Now@@": 505,
    "\"?": 505,
    "edia@@": 505,
    "proper": 505,
    "trade": 505,
    "SF@@": 505,
    "jy@@": 505,
    "BX@@": 505,
    "Caitlyn": 505,
    "Immigrants@@": 505,
    "83@@": 505,
    "Pn@@": 505,
    "sex": 504,
    "#Iran": 504,
    "ified": 504,
    "sty@@": 504,
    "nic@@": 504,
    "democr@@": 504,
    "Aff@@": 504,
    "A.": 504,
    "YX@@": 504,
    "E5@@": 504,
    "ment:": 504,
    "hilipp@@": 504,
    "@marklevinshow:": 504,
    "#Eleccion2015": 504,
    "#is@@": 503,
    "explain": 503,
    "#Islam@@": 503,
    "@ABC": 503,
    "O4@@": 503,
    "las": 503,
    "India@@": 503,
    "freedom": 502,
    "religi@@": 502,
    "#ab@@": 502,
    "@Pro@@": 502,
    "piss@@": 502,
    "joining": 502,
    "#DemocratLiesMatter": 502,
    "China@@": 502,
    "@Politic@@": 502,
    "lean@@": 502,
    "bringing": 502,
    "PK@@": 502,
    "ambassador": 502,
    "Hot@@": 501,
    "Cruz@@": 501,
    "pot@@": 501,
    "M4@@": 501,
    "Rh@@": 501,
    "realDonaldTrump": 501,
    "Oi@@": 501,
    "tion:": 501,
    "71@@": 501,
    "Administr@@": 501,
    "sla@@": 500,
    "Thr@@": 500,
    "yond": 500,
    "ass.": 500,
    "totally": 500,
    "Earth": 500,
    "tit@@": 500,
    "ONLY": 500,
    "qn@@": 500,
    "1D@@": 500,
    "S3@@": 500,
    "Wp@@": 500,
    "Ib@@": 500,
    "diversity": 500,
    "Fetty": 500,
    "https://t.co/fcN3AXyoUB": 500,
    "Sho@@": 499,
    "gin@@": 499,
    "Best": 499,
    "e-@@": 499,
    "@marcorubio": 499,
    "Xf@@": 499,
    "\ud83d\ude4c@@": 499,
    "g4@@": 499,
    "Jn@@": 499,
    "Yg@@": 499,
    "zo@@": 499,
    "@charli_xc@@": 499,
    "lish": 498,
    "clim@@": 498,
    "aid@@": 498,
    "YOU'RE": 498,
    "fit": 498,
    "candal": 498,
    "#Bill@@": 498,
    "194@@": 498,
    "@Yahoo@@": 498,
    "Ever": 498,
    "Q4@@": 498,
    "qy@@": 498,
    "\u304b@@": 498,
    "\u064a": 498,
    "l'@@": 498,
    "https://t.co/Jz\u2026": 498,
    "scho@@": 497,
    "outr@@": 497,
    "mus@@": 497,
    "raise": 497,
    "Org": 497,
    "atten@@": 497,
    "tertain@@": 497,
    "\u0442@@": 497,
    "xc@@": 497,
    "B9@@": 497,
    "Channel": 497,
    "ape": 496,
    "aut@@": 496,
    "Ext@@": 496,
    "rising": 496,
    "Whe@@": 496,
    "Going": 496,
    "#NASCAR": 496,
    "tcy": 496,
    "ert": 495,
    "him,": 495,
    "court": 495,
    "former": 495,
    "donors": 495,
    "@li@@": 495,
    "ousands": 495,
    "t0@@": 495,
    "Ts@@": 495,
    "found@@": 494,
    "Fossil": 494,
    "Cour@@": 494,
    "asshole": 494,
    "ither": 494,
    "lo": 494,
    "Online": 494,
    "F6@@": 494,
    "Sv@@": 494,
    "2w@@": 494,
    "Alien": 494,
    "conservative": 494,
    "#Politics": 494,
    "Tn@@": 494,
    "Compan@@": 494,
    "Asi@@": 494,
    "c3@@": 494,
    "Vis@@": 494,
    "53@@": 494,
    "Js@@": 494,
    "London": 494,
    "probe": 494,
    "us,": 493,
    "Bir@@": 493,
    "@sh@@": 493,
    "celebrities": 493,
    "dev@@": 493,
    "SE": 493,
    "ergart@@": 493,
    "PORT": 493,
    "campaign.": 493,
    "Blogger": 493,
    "L3@@": 493,
    "Y1@@": 493,
    "Democrat@@": 493,
    "Z9@@": 493,
    "angry": 492,
    "bush": 492,
    "man.": 492,
    "pap@@": 492,
    "W:": 492,
    "ich": 492,
    "Yk@@": 492,
    "lines": 492,
    "lt@@": 492,
    "suing": 492,
    "Rv@@": 492,
    "Proof": 492,
    "http://t.co/Mu8W5JkwxJ": 492,
    "gel@@": 491,
    "job.": 491,
    "#4@@": 491,
    "Pope": 491,
    "ailed": 491,
    "#Cruz2016": 491,
    "lawsuit": 491,
    "PS@@": 491,
    "wasting": 491,
    "sidelines": 491,
    "believes": 490,
    "literally": 490,
    "amel@@": 490,
    "ID": 490,
    "nN@@": 490,
    "#El@@": 490,
    "P4@@": 490,
    "truly": 489,
    "Thom@@": 489,
    "(": 489,
    "tough": 489,
    "@Andre@@": 489,
    "M5@@": 489,
    "tV@@": 489,
    "d9@@": 489,
    "Radio": 489,
    "avo@@": 489,
    "\u00f3@@": 489,
    "Brothers": 489,
    "bod@@": 488,
    "omen@@": 488,
    "speak@@": 488,
    "elect": 488,
    "oom": 488,
    ".....": 488,
    "Bp@@": 488,
    "@AmericaFerrera": 488,
    "\u2014@POTUS": 488,
    "@NowPH_or@@": 488,
    "tory": 487,
    "cru@@": 487,
    "rested": 487,
    "famil@@": 487,
    "urt@@": 487,
    "ek@@": 487,
    "#Te@@": 487,
    "Ny@@": 487,
    "THAT": 487,
    "pover@@": 487,
    "Daily@@": 487,
    "dU@@": 487,
    "MZ@@": 487,
    "finds": 487,
    "jR@@": 487,
    "Scientific": 487,
    "possi@@": 486,
    "defin@@": 486,
    "ros@@": 486,
    "Artic@@": 486,
    "rant": 486,
    "Sub@@": 486,
    "woman@@": 486,
    "eat": 486,
    "Rus@@": 486,
    "#makeAmericaGreatAgain": 486,
    "NX@@": 486,
    "Class@@": 486,
    "NV@@": 486,
    "Lea@@": 485,
    "ask@@": 485,
    "gotta": 485,
    "lig@@": 485,
    "Police": 485,
    "cris@@": 485,
    "helping": 485,
    "destro@@": 485,
    "Sarah": 485,
    "aT@@": 485,
    "sive": 485,
    "surpris@@": 485,
    "@Pe@@": 485,
    "gx@@": 485,
    "7Z@@": 485,
    "sv@@": 485,
    "Silent": 485,
    "criminals": 484,
    "59@@": 484,
    "ators": 484,
    "coop@@": 484,
    "ror": 484,
    "USE": 484,
    "racist.": 484,
    "d3@@": 484,
    "che": 484,
    "A4@@": 484,
    "q9@@": 484,
    "concern@@": 483,
    "#Tru@@": 483,
    "stri@@": 483,
    "ichel@@": 483,
    "Without": 483,
    "house@@": 483,
    "berg": 483,
    "zV@@": 483,
    "aM@@": 483,
    "Paul.": 483,
    "fh@@": 483,
    "House:": 483,
    "oney": 482,
    "heav@@": 482,
    "living": 482,
    "18": 482,
    "ness@@": 482,
    "suit": 482,
    "North": 482,
    "crisis": 482,
    "cross@@": 482,
    "clint@@": 482,
    "rid@@": 482,
    "#Sand@@": 482,
    "rock@@": 482,
    "jZ@@": 482,
    "zZ@@": 482,
    "undo@@": 482,
    "undocumented": 482,
    "Bv@@": 482,
    "else@@": 481,
    "hand": 481,
    "single": 481,
    "2016.": 481,
    "gay\u2026": 481,
    "pavos": 481,
    "d\u00e9core": 481,
    "said:": 480,
    "pris@@": 480,
    "tors": 480,
    "liberals": 480,
    "ERS": 480,
    "fired!": 480,
    "gv@@": 480,
    "High": 480,
    "eding": 480,
    "Wap": 480,
    "@byetyler:": 480,
    "\u0641@@": 480,
    "ce,": 479,
    "Vic@@": 479,
    "opinion": 479,
    "gest": 479,
    "@and@@": 479,
    "STOP": 479,
    "ICE": 479,
    "Yv@@": 479,
    "Y3@@": 479,
    "FV@@": 479,
    "tm@@": 479,
    "finance": 479,
    "Wu@@": 479,
    "Oy": 479,
    "ic.": 478,
    "ro": 478,
    "tod@@": 478,
    "anti-abortion": 478,
    "common": 478,
    "icks": 478,
    "Univ@@": 478,
    "#OhHillNo": 478,
    "Univision@@": 478,
    "Clown@@": 478,
    "Bm@@": 478,
    "2Q@@": 478,
    "Million": 478,
    "Remember": 477,
    "lik@@": 477,
    "pay@@": 477,
    "dl@@": 477,
    "speech.": 477,
    "ANT": 477,
    "Ga@@": 477,
    "Uo@@": 477,
    "sues": 477,
    "hired": 477,
    "Nv@@": 477,
    "Sign@@": 477,
    "turns": 477,
    "presidency": 477,
    "@Sarah@@": 477,
    "McDonald": 477,
    "Developing": 477,
    "Sourdough": 477,
    "What@@": 476,
    "Tweet": 476,
    "lied": 476,
    "ce.": 476,
    "lol@@": 476,
    "ther.": 476,
    "gf@@": 476,
    "visit": 476,
    "Chin@@": 476,
    "Camer@@": 476,
    "cf@@": 476,
    "\u27a1@@": 476,
    "ISIS,": 476,
    "inning": 475,
    "glad": 475,
    "game": 475,
    "Pp@@": 475,
    "weak": 475,
    "Cy@@": 475,
    "enting": 475,
    "C5@@": 475,
    "GV@@": 475,
    "qb@@": 475,
    "Talking": 475,
    "jH@@": 475,
    "k5@@": 475,
    "View": 475,
    "OP:": 475,
    "Pfiz@@": 475,
    "#Antarctic": 475,
    "wealth@@": 474,
    "00": 474,
    "ago": 474,
    "ttle": 474,
    "Old": 474,
    "feel@@": 474,
    "NZ@@": 474,
    "Dc@@": 474,
    "plo@@": 474,
    "0x@@": 474,
    "Gg@@": 474,
    "&amp;quotHardcore": 474,
    "Criminals&amp;quot": 474,
    "#FidelCastro": 474,
    "antes": 474,
    "chnologist": 474,
    "Willi@@": 473,
    "D4@@": 473,
    "#you@@": 473,
    "elling": 473,
    "Golf": 473,
    "criminal@@": 473,
    "ispan@@": 473,
    "G3@@": 473,
    "Pan@@": 473,
    "SHO@@": 473,
    "Dept.": 473,
    "Summit,": 473,
    "pr\u2026": 473,
    "@ALDUB@@": 473,
    "ichael@@": 472,
    "ham": 472,
    "ences": 472,
    "AT": 472,
    "ban": 472,
    "erry": 472,
    "06@@": 472,
    "ported": 472,
    "W8@@": 472,
    "climate.": 472,
    "Yz": 472,
    "#BoycottMacys": 472,
    "hablar": 472,
    "evidence": 471,
    "suff@@": 471,
    "ags": 471,
    "enni@@": 471,
    "med": 471,
    "arch@@": 471,
    "rain@@": 471,
    "fal@@": 471,
    "Jv@@": 471,
    "2c@@": 471,
    "UX@@": 471,
    "ifi@@": 471,
    "conference.": 471,
    "WMO": 471,
    "re\u00fane": 471,
    "Two": 470,
    "'The": 470,
    "Trudeau": 470,
    "ain't": 470,
    "appe@@": 470,
    "@Jo@@": 470,
    "UP": 470,
    "Kill@@": 470,
    "olf": 470,
    "#presidential@@": 470,
    "SL@@": 470,
    "aliens": 470,
    "DonaldTrump": 470,
    "we'll": 470,
    "Phot@@": 470,
    "https://t.co/5IV46WvPMc": 470,
    "Celebr@@": 469,
    "love@@": 469,
    "thing,": 469,
    "2.": 469,
    "er\"": 469,
    "butt@@": 469,
    "500@@": 469,
    "@DRUDGE_RE@@": 469,
    "San": 469,
    "IH@@": 469,
    "Colum@@": 469,
    "http://t.co/MMKkTaTapk": 469,
    "Same": 469,
    "Os@@": 469,
    "varios": 469,
    "album:": 469,
    "batt@@": 468,
    "kers@@": 468,
    "s_@@": 468,
    "lma@@": 468,
    "exec@@": 468,
    "dZ@@": 468,
    "B5@@": 468,
    "JH@@": 468,
    "g3@@": 468,
    "Lr@@": 468,
    "ainstream": 468,
    "\u0633@@": 468,
    "Sr@@": 467,
    "Didn't": 467,
    "Australia": 467,
    "Im": 467,
    "brand@@": 467,
    "undit": 467,
    "ivid@@": 467,
    "Environ@@": 467,
    "2m@@": 467,
    "len": 467,
    "BQ@@": 467,
    "Chief": 467,
    "movidas": 467,
    "step": 466,
    "one,": 466,
    "individ@@": 466,
    "wide": 466,
    "amin@@": 466,
    "AR": 466,
    "rently": 466,
    "corrupt": 466,
    "murder": 466,
    "ies@@": 466,
    "link": 466,
    "2v@@": 466,
    "Rl@@": 466,
    "Mv@@": 466,
    "ino:": 466,
    "jobs.": 466,
    "wc@@": 466,
    "b8@@": 466,
    "Birth": 466,
    "#KillerPalm": 466,
    "tochas": 466,
    "\u307e@@": 466,
    "whe@@": 465,
    "star@@": 465,
    "joke@@": 465,
    "may@@": 465,
    "@Le@@": 465,
    "ented": 465,
    "Power": 465,
    "azz@@": 465,
    "#republic@@": 465,
    "daugh@@": 465,
    "now:": 465,
    "here's": 465,
    "als@@": 465,
    "page": 465,
    "Nr@@": 465,
    "@Op@@": 465,
    "immigration,": 465,
    "hoenix@@": 465,
    "https://t.co/1m5nNLYk6b": 465,
    "shit.": 464,
    "sat@@": 464,
    "forward": 464,
    "happen@@": 464,
    "extreme": 464,
    "re's": 464,
    "@Eric@@": 464,
    "TION": 464,
    "TheB@@": 464,
    "GREAT": 464,
    "je": 464,
    "0n@@": 464,
    "ud": 464,
    "Cruz:": 464,
    "@elmundotoday:": 464,
    "#COOLING": 464,
    "ential": 463,
    "ended": 463,
    "Lar@@": 463,
    "proj@@": 463,
    "fw@@": 463,
    "ard.": 463,
    "za": 463,
    "Cli@@": 463,
    "RO": 463,
    "Sanders@@": 463,
    "Gv@@": 463,
    "Bru@@": 463,
    "qD@@": 463,
    "2k@@": 463,
    "@AC360": 463,
    "G1@@": 463,
    "Presiden": 463,
    "admi@@": 463,
    "ity:": 463,
    "Nat@@": 463,
    "Endors@@": 463,
    "\u0629": 463,
    "#years...": 463,
    "ision": 462,
    "either": 462,
    "thoughts": 462,
    "Wond@@": 462,
    "threatens": 462,
    "@st@@": 462,
    "#feminist": 462,
    "Ger@@": 462,
    "propos@@": 462,
    "nest@@": 462,
    "#TGDN": 462,
    "B4@@": 462,
    "Ql@@": 462,
    "S!": 462,
    "W6@@": 462,
    "servative@@": 462,
    "el:": 462,
    "Yn@@": 462,
    "GZ@@": 462,
    "Qa@@": 462,
    "(AP)": 462,
    "feeling": 461,
    "seem": 461,
    "Ben": 461,
    "Riv@@": 461,
    "EG@@": 461,
    "Earth@@": 461,
    "crite": 461,
    "erson@@": 461,
    "Lm@@": 461,
    "8p@@": 461,
    "YOU@@": 461,
    "7V@@": 461,
    "Border": 461,
    "#Dump@@": 461,
    "lord": 460,
    "dog@@": 460,
    "Well,": 460,
    "ason@@": 460,
    "lack": 460,
    "reduc@@": 460,
    "Francisco": 460,
    "Adm@@": 460,
    "aV@@": 460,
    "PerezHil@@": 460,
    "CX@@": 460,
    "rer": 460,
    "isco@@": 460,
    "Cut...": 460,
    "Lead": 460,
    "$16bn": 460,
    "#ActOnClimate:": 460,
    "https://t.co/ekAalMD9jj": 460,
    "anity": 459,
    "se,": 459,
    "audi@@": 459,
    "ardi@@": 459,
    "explains": 459,
    "twitter": 459,
    "@politic@@": 459,
    "Lim@@": 459,
    "dz@@": 459,
    "N4@@": 459,
    "Y6@@": 459,
    "fp@@": 459,
    "c9@@": 459,
    "\u043d@@": 459,
    "d4@@": 459,
    "rests": 459,
    "U.N.": 459,
    "dead": 458,
    "SS": 458,
    "anal@@": 458,
    "@un@@": 458,
    "C9@@": 458,
    "WZ@@": 458,
    "UV@@": 458,
    "Wm@@": 458,
    "America\u2019s": 458,
    "11,000": 458,
    "Scre@@": 457,
    "itive": 457,
    "She's": 457,
    "edia": 457,
    "ayne@@": 457,
    "ters@@": 457,
    "one's": 457,
    "),": 457,
    "Woman": 457,
    "@Miss@@": 457,
    "_m@@": 457,
    "Ft@@": 457,
    "2H@@": 457,
    "cm@@": 457,
    "Bn@@": 457,
    "erson": 456,
    "Cra@@": 456,
    "ttle@@": 456,
    "honor": 456,
    "doll@@": 456,
    "ched": 456,
    "simply": 456,
    "vote@@": 456,
    "HH@@": 456,
    "GT@@": 456,
    "bankrupt": 456,
    "Yy@@": 456,
    "1s@@": 456,
    "#Uniteblue": 456,
    "#WX": 456,
    "laughing": 455,
    "credit": 455,
    "scared": 455,
    "quali@@": 455,
    "HER": 455,
    "Mee@@": 455,
    "74@@": 455,
    "bigot": 455,
    "Uk@@": 455,
    "boycott@@": 455,
    "DON@@": 455,
    "@nbc@@": 455,
    "6l@@": 455,
    "dq@@": 455,
    "Sund@@": 455,
    "hak": 455,
    "scandal@@": 454,
    "lif@@": 454,
    "ning@@": 454,
    "jp@@": 454,
    "build@@": 454,
    "enghazi@@": 454,
    "TRILLI@@": 454,
    "Fh@@": 454,
    "SZ@@": 454,
    "uran": 453,
    "beautiful": 453,
    "#science": 453,
    "igenous": 453,
    "cir@@": 453,
    "@In@@": 453,
    "stick@@": 453,
    "combat": 453,
    "lee@@": 453,
    "roll@@": 453,
    "band": 453,
    "Second": 453,
    "Don": 453,
    "first@@": 453,
    "rong@@": 453,
    "Full": 453,
    "...\"": 453,
    "TER": 453,
    "g9@@": 453,
    "Zipp@@": 453,
    "GL@@": 453,
    "Just@@": 453,
    "anksgiv@@": 453,
    "ine:": 453,
    "on!": 452,
    "ender": 452,
    "ister": 452,
    "tomor@@": 452,
    "straight": 452,
    "push@@": 452,
    "@Ar@@": 452,
    "#Jeb2016": 452,
    "compares": 452,
    "bV@@": 452,
    "Gp@@": 452,
    "7X@@": 452,
    "Nm@@": 452,
    "\u062d@@": 452,
    "ope": 451,
    "RAP@@": 451,
    "#UniteBIue": 451,
    "Their": 451,
    "uv@@": 451,
    "22": 451,
    "nex@@": 451,
    "bw@@": 451,
    "ML@@": 451,
    "families": 451,
    "#Racist": 451,
    "R4@@": 451,
    "|@@": 451,
    "@Sam@@": 451,
    "Mag": 451,
    "add": 450,
    "BH@@": 450,
    "Clim@@": 450,
    "hot": 450,
    "FT@@": 450,
    "hash@@": 450,
    "Tonight": 450,
    "mad": 450,
    "#RedNationRising": 450,
    "Better": 450,
    "6c@@": 450,
    "8x@@": 450,
    "b:": 450,
    "1J@@": 450,
    "@DanScav@@": 450,
    "Ben@@": 450,
    "RH@@": 450,
    "ski@@": 450,
    "@WORLDSTARC0MEDY:": 450,
    "ity,": 449,
    "Hon@@": 449,
    "idi@@": 449,
    "including": 449,
    "special": 449,
    "@theblaze": 449,
    "imagine": 449,
    "#DonaldTrump...": 449,
    "Ov@@": 449,
    "cost@@": 449,
    "NI@@": 449,
    "8h@@": 449,
    "Vs.": 449,
    "pled@@": 449,
    "ship@@": 448,
    "caused": 448,
    "ISM": 448,
    "ince": 448,
    "bill": 448,
    "corruption": 448,
    "#Rand@@": 448,
    "Mn@@": 448,
    "Se": 448,
    "l:": 448,
    "@New@@": 448,
    "\ud83d\udca5@@": 448,
    "marching": 448,
    "Huma": 448,
    "#COP21,": 448,
    "pose": 447,
    "atho@@": 447,
    "anks@@": 447,
    "ty.": 447,
    "tar@@": 447,
    "anger@@": 447,
    "Soci@@": 447,
    "ange": 447,
    "qp@@": 447,
    "j0@@": 447,
    "qt@@": 447,
    "Speak": 447,
    "#Left": 447,
    "Diversity": 447,
    "credible": 446,
    "playing": 446,
    "self.": 446,
    "@Gre@@": 446,
    "pleas@@": 446,
    "rupt": 446,
    "pick": 446,
    "eating": 446,
    "@go@@": 446,
    "blog": 446,
    "month": 446,
    "Which": 446,
    "s/@@": 446,
    "ille": 446,
    "#POTUS@@": 446,
    "shoot@@": 446,
    "OLITIC@@": 446,
    "Qn@@": 446,
    "Cv@@": 446,
    "Lp@@": 446,
    "jd@@": 446,
    "International": 446,
    "summit:": 446,
    "#Atheism": 446,
    "\u0627": 446,
    "ember@@": 445,
    "a?": 445,
    "lement@@": 445,
    "Simp@@": 445,
    "oring": 445,
    "crit@@": 445,
    "ws": 445,
    "2f@@": 445,
    "Run": 445,
    "kp@@": 445,
    "j3@@": 445,
    "Tv@@": 445,
    "Pw@@": 445,
    "ar.": 444,
    "Both": 444,
    "start@@": 444,
    "maintaining": 444,
    "riv@@": 444,
    "ground": 444,
    "tra": 444,
    "tac@@": 444,
    "Lets": 444,
    "@Un@@": 444,
    "Uv@@": 444,
    "XK@@": 444,
    "U4@@": 444,
    "given": 443,
    "mal@@": 443,
    "as.": 443,
    "Action@@": 443,
    "zm@@": 443,
    "Slim": 443,
    "Gh@@": 443,
    "Ml@@": 443,
    "ACK@@": 443,
    "cK@@": 443,
    "Crimin@@": 443,
    "porate": 443,
    "@Coldplay's": 443,
    "quality": 442,
    "amaz@@": 442,
    "benefit": 442,
    "raud": 442,
    "global@@": 442,
    "tric@@": 442,
    "ury": 442,
    "ashing": 442,
    "Health@@": 442,
    "#illegals": 442,
    "ruption": 442,
    "@BarackObama:": 442,
    "god": 441,
    "ts,": 441,
    "contribu@@": 441,
    "an_@@": 441,
    "massive": 441,
    "lyn@@": 441,
    "irl@@": 441,
    "y-@@": 441,
    "NT": 441,
    "Iy@@": 441,
    "dumping": 441,
    "Running": 441,
    "Immigran@@": 441,
    "Reform": 441,
    "j5@@": 441,
    "ard:": 441,
    "Documentary": 441,
    "Spielberg,": 441,
    "Dre@@": 440,
    "stopp@@": 440,
    "stu@@": 440,
    "fig@@": 440,
    "istic": 440,
    "commit@@": 440,
    "break@@": 440,
    "as,": 440,
    "#U@@": 440,
    "#Com@@": 440,
    "ment.": 440,
    "laugh": 440,
    "here.": 440,
    "Idi@@": 440,
    "servativ@@": 440,
    "\ud83d\udc4d": 440,
    "Lw@@": 440,
    "s.\"": 440,
    "Speak@@": 440,
    "#ALDUBApproval": 440,
    "Frid@@": 439,
    "rants": 439,
    "dealing": 439,
    "jl@@": 439,
    "convers@@": 439,
    "@Adam@@": 439,
    "POTUS@@": 439,
    "#cnn": 439,
    "bla@@": 439,
    "2e@@": 439,
    "Az@@": 439,
    "qT@@": 439,
    "bv@@": 439,
    "DM@@": 439,
    "LV@@": 439,
    "Rove": 439,
    "Qp@@": 439,
    "dJ@@": 439,
    "NOAA": 439,
    "#rac@@": 438,
    "secure": 438,
    "consider": 438,
    "Pow@@": 438,
    "TH": 438,
    "T!": 438,
    "Agree": 438,
    "aJ@@": 438,
    "Apparen@@": 438,
    ",'": 438,
    "Apparent": 438,
    "kad@@": 438,
    "\u0642@@": 438,
    "arrog@@": 437,
    "ATION": 437,
    "ambiti@@": 437,
    "bles": 437,
    "inding": 437,
    "Happ@@": 437,
    "Those": 437,
    "C.": 437,
    "Viol@@": 437,
    "Bom@@": 437,
    "YR@@": 437,
    "2l@@": 437,
    "D5@@": 437,
    "MSM": 437,
    "Allen": 437,
    "Jinping": 437,
    "appointed": 436,
    "anning": 436,
    "hurt": 436,
    "\"I'm": 436,
    "baugh": 436,
    "cI@@": 436,
    "od": 436,
    "ist,": 435,
    "effort": 435,
    "develop@@": 435,
    ".....@@": 435,
    "ign": 435,
    "simp@@": 435,
    "Bill@@": 435,
    "favor@@": 435,
    "1999": 435,
    "aE@@": 435,
    "PLEASE": 435,
    "Nl@@": 435,
    "Tran@@": 435,
    "USA:": 435,
    "bes@@": 435,
    "g5@@": 435,
    "america": 435,
    "1t@@": 435,
    "#donaldtrumpforpresident": 435,
    "Track@@": 435,
    "@dailycaller": 435,
    "disease?": 435,
    "atives": 434,
    "onally": 434,
    "perfect": 434,
    "refuge@@": 434,
    "el.": 434,
    "sounds": 434,
    "pand@@": 434,
    "QZ@@": 434,
    "#MissUnivers@@": 434,
    "2O@@": 434,
    "ensive": 434,
    "6w@@": 434,
    "#Boycott@@": 434,
    "What?": 434,
    "Geller": 434,
    "Pamela": 434,
    "baby": 433,
    "inci@@": 433,
    "collec@@": 433,
    "Word@@": 433,
    "non-@@": 433,
    "Dro@@": 433,
    "n't": 433,
    "culture": 433,
    "Hmm@@": 433,
    "orning@@": 433,
    "paren@@": 433,
    "Respon@@": 433,
    "pro": 433,
    "Baby": 433,
    "CAR@@": 433,
    "Det@@": 433,
    "6f@@": 433,
    "8V@@": 433,
    "Trump?": 433,
    "cz@@": 433,
    "Ff@@": 433,
    "2016:": 433,
    "ar:": 433,
    "6x@@": 433,
    "Kasich": 433,
    "Ahead": 433,
    "@Richard@@": 432,
    "outside": 432,
    "ould@@": 432,
    "NOW@@": 432,
    "beaut@@": 432,
    "Dept": 432,
    "ety": 432,
    "sad@@": 432,
    "Dra@@": 432,
    "NYC": 432,
    "2z@@": 432,
    "immigration@@": 432,
    "QT@@": 432,
    "achi@@": 431,
    "oron@@": 431,
    "points": 431,
    "Cities": 431,
    "guy@@": 431,
    "on_@@": 431,
    "RAC@@": 431,
    "Latin": 431,
    "gz@@": 431,
    "Apolog@@": 431,
    "7r@@": 431,
    "1x@@": 431,
    "uh@@": 431,
    "Guardi@@": 431,
    "N9@@": 431,
    "2020": 431,
    "BZ@@": 431,
    "uclear": 431,
    "@JimKim_W@@": 431,
    "fail": 430,
    "allowed": 430,
    "career": 430,
    "abortion,": 430,
    "ret@@": 430,
    "Mov@@": 430,
    "loses": 430,
    "3w@@": 430,
    "8k@@": 430,
    "terror": 430,
    "Exper@@": 430,
    "@350@@": 430,
    "ate?": 429,
    "Pay": 429,
    "eling": 429,
    "Frank@@": 429,
    "critical": 429,
    "gam@@": 429,
    "anne@@": 429,
    "eller": 429,
    "defend": 429,
    "Gener@@": 429,
    "X4@@": 429,
    "Vide@@": 429,
    "reacts": 429,
    "ened": 428,
    "along": 428,
    "small": 428,
    "ist.": 428,
    "#auspol": 428,
    "address@@": 428,
    "arious": 428,
    "aid": 428,
    "l\u2026": 428,
    "hotel": 428,
    "X6@@": 428,
    "re\u2019s": 428,
    "Hw@@": 428,
    "tK@@": 428,
    "0A@@": 428,
    "XV@@": 428,
    "@Jared@@": 428,
    "risti@@": 427,
    "cares": 427,
    "aged": 427,
    "favorite": 427,
    "Huckab@@": 427,
    "wast@@": 427,
    "laws": 427,
    "China,": 427,
    "Feminis@@": 427,
    "terri@@": 427,
    "lege": 427,
    "turned": 427,
    "qC@@": 427,
    "Putin": 427,
    "Dumbest": 427,
    "turkey": 427,
    "Modi,": 427,
    "Wel@@": 426,
    "yeah": 426,
    "Hold@@": 426,
    "j9@@": 426,
    "clothing": 426,
    "ber": 426,
    "b4@@": 426,
    "Africa:": 426,
    "@natureovernewz:": 426,
    "fortun@@": 425,
    "skeptic@@": 425,
    "ental": 425,
    "anchez": 425,
    "Liberal": 425,
    ":-@@": 425,
    "NOT@@": 425,
    "NOW!": 425,
    "gress@@": 425,
    "blu@@": 425,
    "enough@@": 425,
    "#Marco@@": 425,
    "nom@@": 425,
    "Sf@@": 425,
    "Warming": 425,
    "SPN": 425,
    "tics": 424,
    "treat@@": 424,
    "fugees": 424,
    "ER:": 424,
    "FOR@@": 424,
    "Record": 424,
    "records": 424,
    "Pic@@": 424,
    "dipl@@": 424,
    "D0@@": 424,
    "Twitter:": 424,
    "terrorists.": 424,
    "Retwee@@": 424,
    "Francois": 424,
    "innoc@@": 423,
    "selling": 423,
    "involved": 423,
    "Qi@@": 423,
    "vir@@": 423,
    "derogatory": 423,
    "tions@@": 423,
    "movement!": 423,
    "aP@@": 423,
    "Stand": 423,
    "slams": 423,
    "8v@@": 423,
    "Uh@@": 423,
    ".\u2026": 423,
    "ALL@@": 423,
    "QW@@": 423,
    ",,@@": 423,
    "Meat": 423,
    "Promis@@": 423,
    "#TrumpIsRight": 423,
    "oogle": 422,
    "#Paul@@": 422,
    "ally,": 422,
    "Den@@": 422,
    "Osb@@": 422,
    "er?": 422,
    "corpor@@": 422,
    "QM@@": 422,
    "Carolina": 422,
    "aK@@": 422,
    "Antarctic": 422,
    "D.": 421,
    "Key": 421,
    "Making": 421,
    "doesnt": 421,
    "Vagina": 421,
    "dy": 421,
    "Five": 421,
    "Pacific": 421,
    "Boy@@": 421,
    "GP@@": 421,
    "atas": 421,
    "Lh@@": 421,
    "ased": 421,
    "m:": 421,
    "@foxandfriends:": 421,
    "ilegal@@": 421,
    "Paris:": 421,
    "COP": 421,
    "@UNFCCC:": 421,
    "Rom@@": 420,
    "hav@@": 420,
    "release": 420,
    "people,": 420,
    "Very": 420,
    "26": 420,
    "Watching": 420,
    "at.": 420,
    "Ambassador": 420,
    "a\"": 420,
    "Jh@@": 420,
    "ow:": 420,
    "#AmericaFerrera": 420,
    "pardons": 420,
    "Blinton": 420,
    "ision@@": 419,
    "Na@@": 419,
    "shame": 419,
    "faith": 419,
    "evil": 419,
    "impacts": 419,
    "movie": 419,
    "viously": 419,
    "Ronald": 419,
    "risis": 419,
    "pton": 419,
    "2D@@": 419,
    "37@@": 419,
    "#Latino@@": 419,
    "mh@@": 419,
    "#Big@@": 419,
    "#inners": 419,
    "Gz@@": 419,
    "pe:": 419,
    "H4@@": 419,
    "HILLARY@@": 419,
    "@RealJamesWoods:": 419,
    "Lord": 418,
    "promises": 418,
    "policies": 418,
    "\"Hillary": 418,
    "Jp@@": 418,
    "statement@@": 418,
    "firing": 418,
    "Wants": 418,
    "QV@@": 418,
    "3x@@": 418,
    "Dn@@": 418,
    "FC@@": 418,
    "Foreign": 418,
    "Nigeri@@": 418,
    "best@@": 417,
    "Liv@@": 417,
    "tal": 417,
    "aling": 417,
    "Find": 417,
    ".@HillaryClinton": 417,
    "America,": 417,
    "open@@": 417,
    "illions": 417,
    "XZ@@": 417,
    "1f@@": 417,
    "bZ@@": 417,
    "Zi@@": 417,
    "Illegal@@": 417,
    "#illegalimmigration": 417,
    "0r@@": 417,
    "#Mor@@": 416,
    "Gra@@": 416,
    "way.": 416,
    "edy": 416,
    "early": 416,
    "@ed@@": 416,
    "\u2764@@": 416,
    "Contin@@": 416,
    "professor": 416,
    "KO": 416,
    "one\u201d": 416,
    "Narendra": 416,
    "ians": 415,
    "women.": 415,
    "fear@@": 415,
    "@Mar@@": 415,
    "especially": 415,
    "changing": 415,
    "cool": 415,
    "ocks": 415,
    "fair": 415,
    "ing...": 415,
    "assho@@": 415,
    "about@@": 415,
    "This@@": 415,
    "T5@@": 415,
    "RV@@": 415,
    "rE@@": 415,
    "MD": 415,
    "igare@@": 415,
    "ology": 414,
    "awesome": 414,
    "CO2": 414,
    "ouse@@": 414,
    "uss@@": 414,
    "saf@@": 414,
    "nuclear": 414,
    "chief": 414,
    "bigotry": 414,
    "gj@@": 414,
    "Bx@@": 414,
    "Yz@@": 414,
    "@Michael@@": 414,
    "&amp;#039@@": 414,
    "Agreement": 414,
    "es...": 413,
    "#l@@": 413,
    "#Not@@": 413,
    "@Mr@@": 413,
    "Vir@@": 413,
    "requ@@": 413,
    "Dep@@": 413,
    "main": 413,
    "B7@@": 413,
    "JF@@": 413,
    "fic": 413,
    "!!!!!": 413,
    "Rodham": 413,
    "tone": 413,
    "Alberta": 413,
    "#Science": 413,
    "ounds": 412,
    "Imag@@": 412,
    "le,": 412,
    "gue": 412,
    "bly": 412,
    "@Tim@@": 412,
    "hero@@": 412,
    "REA@@": 412,
    "dropped": 412,
    "#mexicans": 412,
    "Uy@@": 412,
    "aki": 412,
    "Xm@@": 412,
    "Giuliani": 412,
    "@gmanetwork:": 412,
    "environ@@": 411,
    "@Carbon@@": 411,
    "pref@@": 411,
    "@BlissTabith@@": 411,
    "#renewables": 411,
    "racist,": 411,
    "EE": 411,
    "@PP@@": 411,
    "Ol@@": 411,
    "Rz@@": 411,
    "tZ@@": 411,
    "ACK": 411,
    "AKE": 411,
    "r\u00e9@@": 411,
    "nes@@": 410,
    "ests": 410,
    "Govern@@": 410,
    "differen@@": 410,
    "Hitler": 410,
    "g2@@": 410,
    "Cn@@": 410,
    "Nations": 410,
    "gp@@": 410,
    "coverage": 410,
    "Via": 410,
    "weighs": 410,
    "Xn@@": 410,
    "Dv@@": 410,
    "Chall@@": 410,
    "feminist\"": 410,
    "whatever": 409,
    "MY": 409,
    "expect@@": 409,
    "NEVER": 409,
    "battle": 409,
    "ollar": 409,
    "gc@@": 409,
    "UM@@": 409,
    "Truth@@": 409,
    "Oy@@": 409,
    "bull": 409,
    "Q&amp;A": 409,
    "#Be@@": 408,
    "ored": 408,
    "chnolog@@": 408,
    "Young": 408,
    "dumb@@": 408,
    "repe@@": 408,
    "#NH@@": 408,
    "Bal@@": 408,
    "EZ@@": 408,
    "\ud83c\uddf2@@": 408,
    "Martin": 408,
    "Nn@@": 408,
    "backs": 408,
    "Said": 408,
    "8t@@": 408,
    "Harris@@": 408,
    "\u3082@@": 408,
    "@NolteNC:": 408,
    "ous,": 407,
    "Ku@@": 407,
    "ection": 407,
    "Bas@@": 407,
    "Ez@@": 407,
    "Ln@@": 407,
    "Busin@@": 407,
    "(VIDEO)": 407,
    "star": 407,
    "#PJ@@": 407,
    "tow@@": 406,
    "on?": 406,
    "Christian": 406,
    "ITY": 406,
    "import@@": 406,
    "ago@@": 406,
    "number": 406,
    "short": 406,
    "child": 406,
    "deserves": 406,
    "fe": 406,
    "DE": 406,
    "lit@@": 406,
    "BG": 406,
    "relev@@": 406,
    "3n@@": 406,
    "at:": 406,
    "ashington@@": 406,
    "SA": 405,
    "financial": 405,
    "largest": 405,
    "push": 405,
    "feminist,": 405,
    "THAT@@": 405,
    "definitely": 405,
    "ebod@@": 405,
    "ell:": 405,
    "0c@@": 405,
    "Guess": 405,
    "Q6@@": 405,
    "connec@@": 404,
    "ant,": 404,
    "ounce": 404,
    "kets": 404,
    "fli@@": 404,
    "#CCOT": 404,
    "car": 404,
    "Commun@@": 404,
    "$$@@": 404,
    "81": 404,
    "foc@@": 404,
    "servative": 404,
    "JT@@": 404,
    "bet@@": 404,
    "FIRED": 404,
    "NK@@": 404,
    "active": 404,
    "@cspanwj": 404,
    "one-@@": 404,
    "\u25ba": 404,
    "card": 404,
    "@Greenpeace:": 404,
    "(Reuters)": 404,
    "14": 403,
    "LOVE": 403,
    "alone": 403,
    "olerance": 403,
    "happens": 403,
    "Que@@": 403,
    "Sco@@": 403,
    "Open": 403,
    "chec@@": 403,
    "qP@@": 403,
    "#Mexico@@": 403,
    "0Z@@": 403,
    "Luc@@": 403,
    "Show@@": 403,
    "Nx@@": 403,
    "WP@@": 403,
    "Dx@@": 403,
    "ABC@@": 403,
    "@ha@@": 403,
    "Confirms": 403,
    "@NatGe@@": 403,
    "#clim@@": 403,
    "from@@": 402,
    "@ra@@": 402,
    "White@@": 402,
    "age:": 402,
    "eep": 402,
    "FRE@@": 402,
    "regarding": 402,
    "MV@@": 402,
    "sV@@": 402,
    "CZ@@": 402,
    "9y@@": 402,
    "web@@": 402,
    "\"S@@": 402,
    "Add": 402,
    "ligion": 401,
    "Eb@@": 401,
    "renewable": 401,
    "istory": 401,
    "@No@@": 401,
    "IA": 401,
    "likes": 401,
    "Liberty": 401,
    "QH@@": 401,
    "ug": 401,
    "8w@@": 401,
    "SB@@": 401,
    "96@@": 401,
    "b3@@": 401,
    "proving": 401,
    "BarackObama": 401,
    "Nw@@": 401,
    "ending@@": 401,
    "et:": 401,
    "@DLGotNoBitches:": 401,
    "http://t.co/xoUvqvll1Q": 401,
    "facing": 400,
    "raped": 400,
    "dead@@": 400,
    "built": 400,
    "dic@@": 400,
    "left@@": 400,
    ",00@@": 400,
    "Dp@@": 400,
    "cV@@": 400,
    "Np@@": 400,
    "DH": 400,
    "bF@@": 400,
    "'the": 400,
    "D6@@": 400,
    "uT@@": 400,
    "View@@": 400,
    "#HeSaid": 400,
    "#Brian@@": 400,
    "Scient@@": 400,
    "RIOT": 400,
    "@CFigue@@": 400,
    "Atheist:": 400,
    "OAA": 400,
    "Think@@": 399,
    "obsess@@": 399,
    "often": 399,
    "scient@@": 399,
    "ount": 399,
    "ward": 399,
    "interesting": 399,
    "Iraq": 399,
    "Nev@@": 399,
    "sever@@": 399,
    "UZ@@": 399,
    "grac@@": 399,
    "jo": 399,
    "Y7@@": 399,
    "ely@@": 399,
    "d6@@": 399,
    "Resear@@": 399,
    "alk@@": 399,
    "succ@@": 398,
    "Strateg@@": 398,
    "500": 398,
    "amer@@": 398,
    "mine": 398,
    "sand@@": 398,
    "ete@@": 398,
    "#ycot": 398,
    "certific@@": 398,
    "#edshow": 398,
    "\ud83c\uddfa\ud83c\uddf8\ud83c\uddfa\ud83c\uddf8@@": 398,
    "Xh@@": 398,
    "Y2@@": 398,
    "qo@@": 398,
    "sx@@": 398,
    "veals": 398,
    "Dumb": 398,
    "ution@@": 398,
    "Syria": 398,
    "banner": 398,
    "-H@@": 397,
    "OTUS@@": 397,
    "chat": 397,
    "Last": 397,
    "Story": 397,
    "Comp@@": 397,
    "dog": 397,
    "Lives": 397,
    "Election": 397,
    "ault": 397,
    "prison": 397,
    "coffee": 397,
    "Yf@@": 397,
    "gF@@": 397,
    "jz@@": 397,
    "peac@@": 396,
    "stitu@@": 396,
    "arly": 396,
    "#Im@@": 396,
    "except": 396,
    "Loo@@": 396,
    "ently": 396,
    "movi@@": 396,
    "Strong": 396,
    "reports": 396,
    "n.": 396,
    "cro@@": 396,
    "KE": 396,
    "azine": 396,
    "@oli@@": 396,
    "@Matt@@": 396,
    "@Jim@@": 396,
    "I6@@": 396,
    "Ontario": 396,
    "@andersoncooper": 396,
    "McDonald:": 396,
    "author:": 396,
    "perf@@": 395,
    "hH@@": 395,
    "gratul@@": 395,
    "#Op@@": 395,
    "worry": 395,
    "tag": 395,
    "irl": 395,
    "mone@@": 395,
    "JUST": 395,
    "ris": 395,
    "Won't": 395,
    "Romney": 395,
    "@red@@": 395,
    "Press": 395,
    "Republican@@": 395,
    "Donald.": 395,
    "P6@@": 395,
    "Ek@@": 395,
    "7f@@": 395,
    "Insid@@": 395,
    "Palin@@": 395,
    "Home": 395,
    "GETS": 395,
    "?:": 395,
    "Wj@@": 395,
    "\u00e7o@@": 395,
    "oldplay": 395,
    "quite": 394,
    "wear": 394,
    "gal@@": 394,
    "angel@@": 394,
    "temper@@": 394,
    "mention@@": 394,
    "man,": 394,
    "a!": 394,
    "idiots": 394,
    "@an@@": 394,
    "onald@@": 394,
    "#donald@@": 394,
    "#golf": 394,
    "0f@@": 394,
    "ILLEGAL": 394,
    "ILLEGAL@@": 394,
    "Le": 394,
    "aqu@@": 394,
    "PA": 393,
    "values": 393,
    "JW@@": 393,
    "outhern": 393,
    "Fior@@": 393,
    "ean@@": 393,
    "haha": 393,
    "eg": 393,
    "Oz@@": 393,
    "uy@@": 393,
    "MAKE": 393,
    "ership": 393,
    "#David@@": 393,
    "WS": 393,
    "honest,": 393,
    "gan": 392,
    "example": 392,
    "1-@@": 392,
    "hus@@": 392,
    "comedy": 392,
    "atin@@": 392,
    "3V@@": 392,
    "whelming": 392,
    "fres@@": 392,
    "#TNT@@": 392,
    "3A@@": 392,
    "officials": 392,
    "Current": 392,
    "Science@@": 392,
    "Action:": 392,
    "#climateaction": 392,
    "Alberta@@": 391,
    "@dr@@": 391,
    "altern@@": 391,
    "cien@@": 391,
    "Span@@": 391,
    "YS": 391,
    "1e@@": 391,
    "Fz@@": 391,
    "Ew@@": 391,
    "Xc@@": 391,
    "se:": 391,
    "J8@@": 391,
    "Ki-moon": 391,
    "warns": 390,
    "Agre@@": 390,
    "uu@@": 390,
    "JR@@": 390,
    "@Tom@@": 390,
    "G6@@": 390,
    "iddle@@": 390,
    "McC@@": 390,
    "Sz@@": 390,
    "comic": 390,
    "Rr@@": 390,
    "CT@@": 390,
    "wid@@": 389,
    "would@@": 389,
    "changed": 389,
    "hosp@@": 389,
    "ja": 389,
    "azi": 389,
    "#StandWith@@": 389,
    "1h@@": 389,
    "@Latino@@": 389,
    "qh@@": 389,
    "Bj@@": 389,
    "backlash": 389,
    "#Holl@@": 389,
    "nor": 388,
    "rul@@": 388,
    "position": 388,
    "emo@@": 388,
    "breaking": 388,
    "private": 388,
    "organiz@@": 388,
    "@greta": 388,
    "termin@@": 388,
    "abortion?": 388,
    "avi@@": 388,
    "enopho@@": 388,
    "8r@@": 388,
    "aI@@": 388,
    "behavi@@": 388,
    "Hn@@": 388,
    "HAR@@": 388,
    "kv@@": 388,
    "3cm@@": 388,
    "investors'": 388,
    ".@POTUS@@": 388,
    "cool@@": 387,
    "wrote": 387,
    "FOX": 387,
    "Sty@@": 387,
    "bam@@": 387,
    "#BlackLivesMatter": 387,
    "54@@": 387,
    "@nytimes": 387,
    "accur@@": 387,
    "ag": 387,
    "latino": 387,
    "3K@@": 387,
    "Mel@@": 387,
    "Vegas": 387,
    "py@@": 387,
    "mV@@": 387,
    "Hr@@": 387,
    "Climate,": 387,
    "https://t.co/Tr6AZaE1el": 387,
    "aps": 386,
    "heart": 386,
    "Green": 386,
    "ax": 386,
    "#Ac@@": 386,
    "fut@@": 386,
    "@Joe@@": 386,
    "eral@@": 386,
    "#Women@@": 386,
    "Dy@@": 386,
    "pop@@": 386,
    "k.": 386,
    "experi@@": 386,
    "Fp@@": 386,
    "js@@": 386,
    "6n@@": 386,
    "@realDonaldTrump,": 386,
    "C1@@": 386,
    "CER@@": 386,
    "#TRUMP": 386,
    "BBC": 386,
    "@LifeNewsHQ:": 386,
    "tried": 385,
    "2)": 385,
    "GRE@@": 385,
    "Wow": 385,
    "ene": 385,
    "adem@@": 385,
    "myself": 385,
    "tional@@": 385,
    "admits": 385,
    "ingFor@@": 385,
    "LP": 385,
    "Way@@": 385,
    "mexicans": 385,
    "YU@@": 385,
    "2h@@": 385,
    "chan@@": 385,
    "deplo@@": 385,
    "Barbra": 385,
    "you?": 384,
    "ers!": 384,
    "amazing": 384,
    "self-@@": 384,
    "ike@@": 384,
    "world's": 384,
    "athan@@": 384,
    "Kind@@": 384,
    "shit@@": 384,
    "#Twitter": 384,
    "Citiz@@": 384,
    "Abortion@@": 384,
    "MORE": 384,
    "Mt@@": 384,
    "Thinks": 384,
    "RED": 384,
    "Aq@@": 384,
    "NBC,": 384,
    "#Eleccion2016": 384,
    "\u0643@@": 384,
    "dom@@": 383,
    "5p@@": 383,
    "today!": 383,
    "anti": 383,
    "Pos@@": 383,
    "dos": 383,
    "inthe@@": 383,
    "town": 383,
    "do.": 383,
    "ONE@@": 383,
    "su": 383,
    "A6@@": 383,
    "Df@@": 383,
    "3z@@": 383,
    "PT@@": 383,
    "Streisand": 383,
    "peace": 382,
    "#te@@": 382,
    "Marri@@": 382,
    "Bob": 382,
    "smart@@": 382,
    "rat@@": 382,
    "ple": 382,
    "Politi@@": 382,
    "@foxandfriends": 382,
    "in'": 382,
    "oreillyfactor": 382,
    "Cho@@": 382,
    "ly!": 382,
    "DS": 382,
    "#obama": 382,
    "IX@@": 382,
    "Canc@@": 382,
    "Drops": 382,
    "@ThePatriot14@@": 382,
    "eh@@": 382,
    "0b@@": 382,
    "host@@": 382,
    "clud@@": 382,
    "\u2714@@": 382,
    "@Libertea2012:": 382,
    "\u093e@@": 382,
    "Honest@@": 381,
    "Learn": 381,
    "independ@@": 381,
    "son:": 381,
    "#environment": 381,
    "Central": 381,
    "MR@@": 381,
    "Fil@@": 381,
    "paying": 381,
    "#Cor@@": 381,
    "president?": 381,
    "illary@@": 381,
    "CE": 381,
    "Cw@@": 381,
    "W2@@": 381,
    "jt@@": 381,
    "\u0441@@": 381,
    "Huff@@": 381,
    "a\u2019s": 381,
    "turkeys": 381,
    "$2tn": 381,
    "ables": 380,
    "Jesus": 380,
    "Calling": 380,
    "Obamac@@": 380,
    "red.": 380,
    "CEO@@": 380,
    "Department": 380,
    "Abed@@": 380,
    "regre@@": 380,
    "#msnbc": 380,
    "said.": 380,
    "kZ@@": 380,
    "L7@@": 380,
    "ble:": 380,
    "*Hillary": 380,
    "will@@": 379,
    "happened": 379,
    "rep@@": 379,
    "dream": 379,
    "prene@@": 379,
    "OK": 379,
    "CEO": 379,
    "#GamerGate": 379,
    "_M@@": 379,
    "locked": 379,
    "degree": 379,
    "shop": 379,
    "gress": 379,
    "Control": 379,
    "FL": 379,
    "Hz@@": 379,
    "ans?": 379,
    "jQ@@": 379,
    "atro@@": 379,
    "https://t.co/zm@@": 379,
    "VIDEO@@": 379,
    "Journ@@": 379,
    "blo@@": 378,
    "fix@@": 378,
    "sad": 378,
    "Primary": 378,
    "stem@@": 378,
    "Campaign@@": 378,
    "Yor@@": 378,
    "Yu@@": 378,
    "#Jon@@": 378,
    "C4@@": 378,
    "2F@@": 378,
    "@All@@": 378,
    "S0@@": 378,
    "secur@@": 378,
    "Richard": 378,
    "bombing": 378,
    "continu@@": 377,
    "Boe@@": 377,
    "gon@@": 377,
    "Well@@": 377,
    "defeat": 377,
    "sell": 377,
    "#Clinton@@": 377,
    "ez": 377,
    "ited@@": 377,
    "ki": 377,
    "declared": 377,
    "ez@@": 377,
    "erp@@": 377,
    "ht...": 377,
    "@laur@@": 377,
    "veils": 377,
    "les:": 377,
    "BARACK": 377,
    "Ali@@": 376,
    "ren't": 376,
    "uly@@": 376,
    "refuses": 376,
    "#hillary@@": 376,
    "Lew@@": 376,
    "releas@@": 376,
    "wish@@": 376,
    "Video:": 376,
    "c7@@": 376,
    "wV@@": 376,
    "O6@@": 376,
    "Deen": 376,
    "@the_@@": 375,
    "AGAIN@@": 375,
    "wearing": 375,
    "initi@@": 375,
    "low-@@": 375,
    "oods": 375,
    "feels": 375,
    "alls": 375,
    "Far@@": 375,
    "usi@@": 375,
    "E4@@": 375,
    "Lf@@": 375,
    "Doing": 375,
    "progressive": 375,
    "1k@@": 375,
    "bu": 375,
    "\u0915@@": 375,
    "Scientist": 375,
    "hasn't": 374,
    "truc@@": 374,
    "Canadian": 374,
    "so,": 374,
    "effec@@": 374,
    "@steph@@": 374,
    "rid": 374,
    "sending": 374,
    "expos@@": 374,
    "ANS": 374,
    "Earth.": 374,
    "#celebs": 374,
    "Dh@@": 374,
    "targets": 374,
    "rules": 374,
    "offers": 374,
    "ENT": 374,
    "LIM@@": 374,
    "Retweeted": 374,
    "YEAR@@": 374,
    "mendukung": 374,
    "known": 373,
    "keptic@@": 373,
    "ocide": 373,
    "lorid@@": 373,
    "discuss@@": 373,
    "defending": 373,
    "ements": 373,
    "y'all": 373,
    "anwal@@": 373,
    "\"If": 373,
    "joins": 373,
    "#2@@": 373,
    "cut@@": 373,
    "gQ@@": 373,
    "Angry": 373,
    "AQ@@": 373,
    "VER": 373,
    "held": 373,
    "rend@@": 373,
    "Homel@@": 373,
    "giv@@": 372,
    "@White@@": 372,
    "agon@@": 372,
    "comed@@": 372,
    "placed": 372,
    "surprise": 372,
    "degre@@": 372,
    "Mart@@": 372,
    "VOT@@": 372,
    "wall@@": 372,
    "oss": 372,
    "M9@@": 372,
    "Jz@@": 372,
    "Vr@@": 372,
    "M3@@": 372,
    "X9@@": 372,
    "Mexico.": 372,
    "qR@@": 372,
    "5l@@": 372,
    "anctuary": 372,
    "ATTLE": 372,
    "#Exxon@@": 372,
    "@KatiePavlich:": 372,
    "https://t.co/f\u2026": 372,
    "\u3046@@": 372,
    "Scale": 372,
    "spo@@": 371,
    "thank@@": 371,
    "#go@@": 371,
    "stic@@": 371,
    "ode": 371,
    "Stre@@": 371,
    "solution": 371,
    "@y@@": 371,
    "ubs": 371,
    "J7@@": 371,
    "corporate": 371,
    "os,": 371,
    "9/11": 371,
    "'I": 371,
    "8f@@": 371,
    "Takes": 371,
    "polls.": 371,
    "Fg@@": 371,
    "West@@": 371,
    "Personal": 371,
    "expres@@": 371,
    "elz": 371,
    "Posts": 371,
    "seminar": 371,
    "untuk": 371,
    "Jatuh": 371,
    "Rick@@": 370,
    "#De@@": 370,
    "ivers@@": 370,
    "sus@@": 370,
    "judge": 370,
    "Es@@": 370,
    "ential@@": 370,
    "H5@@": 370,
    "aims": 370,
    "#NoAmnesty": 370,
    "Nz@@": 370,
    "@el@@": 370,
    "#Macy's": 370,
    "resear@@": 370,
    "Thanksgiv@@": 370,
    "#athe@@": 369,
    "fair@@": 369,
    "are.": 369,
    "ult@@": 369,
    "spend": 369,
    "should@@": 369,
    "committed": 369,
    "#China": 369,
    "absolutely": 369,
    "#TedCruz2016": 369,
    "Revol@@": 369,
    "Choice": 369,
    "broad@@": 369,
    "H.": 369,
    "g7@@": 369,
    "yz@@": 369,
    "ando": 369,
    "28": 369,
    "WQ@@": 369,
    "asha@@": 369,
    "Greg": 369,
    "youn@@": 368,
    "Supporting": 368,
    "tted": 368,
    "MIS@@": 368,
    "picture": 368,
    "antly": 368,
    "enjoy": 368,
    "Poli@@": 368,
    "attacking": 368,
    "inspi@@": 368,
    "e2016": 368,
    "197@@": 368,
    "Zn@@": 368,
    "dig@@": 368,
    "XIC@@": 368,
    "ms@@": 368,
    "O3@@": 368,
    "Grou@@": 368,
    "@Danny@@": 368,
    "Spielberg": 368,
    "Bloom@@": 368,
    "#ElChapoGuzman": 368,
    "@guardian:": 368,
    "TheMalyck_:": 368,
    "Rober@@": 367,
    "MU@@": 367,
    "sent@@": 367,
    "weak@@": 367,
    "cant": 367,
    "Minister": 367,
    "Stup@@": 367,
    "norm@@": 367,
    "aver@@": 367,
    "ft.": 367,
    "1.": 367,
    "orum": 367,
    "ots!": 367,
    "#Charlest@@": 367,
    "N2@@": 367,
    "n,": 367,
    "undreds": 367,
    "nC@@": 367,
    "N5@@": 367,
    "Iu@@": 367,
    "TON@@": 367,
    "Wc@@": 367,
    "Believ@@": 367,
    "COOLING": 367,
    "you've": 366,
    "surprised": 366,
    "ken": 366,
    "mention": 366,
    "Ruffal@@": 366,
    "preserve": 366,
    "#CruzCrew": 366,
    "evin@@": 366,
    "Polls": 366,
    "#Busin@@": 366,
    "candidate.": 366,
    "aH@@": 366,
    "uso": 366,
    "alread@@": 365,
    "ashed": 365,
    "board": 365,
    "notic@@": 365,
    "joke.": 365,
    "@Daily@@": 365,
    "IF": 365,
    "#Women": 365,
    "Left": 365,
    "plat@@": 365,
    "@john@@": 365,
    "edCruz": 365,
    "lemundo": 365,
    "kep@@": 365,
    "DD@@": 365,
    "0w@@": 365,
    "ull": 365,
    "Tp@@": 365,
    "k4@@": 365,
    "temp": 365,
    "#PGA": 365,
    "politico@@": 365,
    "Ugandan": 365,
    "@NatureNews:": 365,
    "&": 364,
    "this,": 364,
    "Hal@@": 364,
    "Russia": 364,
    "money.": 364,
    "cli@@": 364,
    "sound": 364,
    "'s@@": 364,
    "Us": 364,
    "humor@@": 364,
    "Xb@@": 364,
    "Mh@@": 364,
    "CV@@": 364,
    "argum@@": 364,
    "Medal": 364,
    "properly": 364,
    "USSE@@": 364,
    "@DrMartyFox:": 364,
    "See@@": 363,
    "@Pat@@": 363,
    "ly?": 363,
    "Racism": 363,
    "@z@@": 363,
    "die@@": 363,
    "struc@@": 363,
    "YP@@": 363,
    "Mod@@": 363,
    "won": 363,
    "wil@@": 363,
    "thes@@": 363,
    "illary": 363,
    "@RandPaul": 363,
    "pull": 363,
    "HOW": 363,
    "Gets": 363,
    "7p@@": 363,
    "H9@@": 363,
    "8z@@": 363,
    "I5@@": 363,
    "@Patriot@@": 363,
    "Women@@": 363,
    "aminer": 363,
    "11:": 363,
    "Xp@@": 363,
    "Nearly": 363,
    "I\u2026": 363,
    "medicare": 363,
    "medicaid": 363,
    "Chapo@@": 363,
    "Profess@@": 363,
    "whether": 362,
    "Union": 362,
    "Thank@@": 362,
    "emocrac@@": 362,
    "#america": 362,
    "Event": 362,
    "Prof@@": 362,
    "mac@@": 362,
    "aylor@@": 362,
    "iden": 362,
    "JD@@": 362,
    "@Global@@": 362,
    "Iz@@": 362,
    "Due": 362,
    "pledge": 362,
    "Comb@@": 362,
    "JL@@": 362,
    "@Unilever@@": 362,
    "presidentes": 362,
    "BT": 361,
    "released": 361,
    "Freedom@@": 361,
    "resting": 361,
    "bott@@": 361,
    "They@@": 361,
    "#st@@": 361,
    "Tom@@": 361,
    "check@@": 361,
    "progr@@": 361,
    "@ad@@": 361,
    "rapist": 361,
    "#election2016": 361,
    "five": 361,
    "ida": 361,
    "@im@@": 361,
    "Jon": 361,
    "Critic@@": 361,
    "F-Word": 361,
    "nor@@": 360,
    "balls": 360,
    "liberal@@": 360,
    "strateg@@": 360,
    "experience": 360,
    "coal": 360,
    "ty,": 360,
    "isl@@": 360,
    "listening": 360,
    "raping": 360,
    "Hate": 360,
    "ration": 360,
    "Smith@@": 360,
    "win.": 360,
    "politically": 360,
    "Israel": 360,
    "y4@@": 360,
    "ante": 360,
    "@Bl@@": 360,
    "ao@@": 360,
    "Sx@@": 360,
    "AIR@@": 360,
    "\u0440@@": 360,
    "reaking@@": 360,
    "Nt@@": 360,
    "ky": 360,
    "\u2605": 360,
    "R6@@": 360,
    "ai": 360,
    "@HuffingtonPost:": 360,
    "langu@@": 359,
    "ble.": 359,
    "Yet": 359,
    "crap": 359,
    "kick": 359,
    "time,": 359,
    "ka": 359,
    "#univision": 359,
    "NEW": 359,
    "@BBC@@": 359,
    "consequences": 359,
    "Jb@@": 359,
    "ulling": 359,
    "@washingtonpost:": 359,
    "J1@@": 359,
    ":\u2026": 359,
    "reform": 359,
    "Qb@@": 359,
    "kel": 359,
    "'Illegal": 359,
    "1990s": 359,
    "ainedcm@@": 359,
    "ebody": 358,
    "Charl@@": 358,
    "lim": 358,
    "DER@@": 358,
    "gh": 358,
    "apparently": 358,
    "iron@@": 358,
    "mom": 358,
    "explo@@": 358,
    "compet@@": 358,
    "WG@@": 358,
    "y...": 358,
    "anding": 358,
    "Huge": 358,
    "ICK": 358,
    "Senate": 358,
    "gs@@": 358,
    "gk@@": 358,
    "Cont@@": 358,
    "DZ@@": 358,
    "Summ@@": 358,
    "Aj@@": 358,
    "firms": 358,
    "Premi@@": 358,
    "https://t.co/xcvQMUrbFP": 358,
    "\u0131n@@": 358,
    "\u00f1o": 358,
    "Yeast,": 358,
    "#UN@@": 357,
    "blood": 357,
    "most@@": 357,
    "obby@@": 357,
    "P5@@": 357,
    "@Jon@@": 357,
    "quit": 357,
    "@Chuck@@": 357,
    "insulting": 357,
    "#George@@": 357,
    "#Lindsey@@": 357,
    "enjo@@": 357,
    "Kh@@": 357,
    "Ai@@": 357,
    "#WeAre@@": 357,
    "Break@@": 357,
    "mn@@": 357,
    "illar@@": 357,
    "recomm@@": 357,
    "sans": 357,
    "album": 357,
    "Armed": 357,
    "conference:": 357,
    "hamm@@": 356,
    "Religi@@": 356,
    "Work": 356,
    "ITH": 356,
    "life.": 356,
    "signed": 356,
    "Francis": 356,
    "particip@@": 356,
    "ire@@": 356,
    "Enjoyed": 356,
    "ita": 356,
    "dir@@": 356,
    "@Team@@": 356,
    "me...": 356,
    "33": 356,
    "Spee@@": 356,
    "qk@@": 356,
    "r\u2026": 356,
    "Direc@@": 356,
    "ge:": 356,
    "&gt;HiLLARY&gt;": 356,
    "Action.": 356,
    "sees": 355,
    "children@@": 355,
    "according": 355,
    "#US": 355,
    "annoy@@": 355,
    "Bla@@": 355,
    "annual": 355,
    "remov@@": 355,
    "arg@@": 355,
    "ort@@": 355,
    "Tot@@": 355,
    "@megynk@@": 355,
    "Pen@@": 355,
    "Blog": 355,
    "u\u2026": 355,
    "F7@@": 355,
    "qs@@": 355,
    "Lat@@": 355,
    "Qc@@": 355,
    "Iron@@": 355,
    "prostitut@@": 355,
    "Ao@@": 355,
    "#Bernie@@": 355,
    "Common": 355,
    "Veg@@": 355,
    "@thinkprogress:": 355,
    "kurt": 355,
    "@climateprogress:": 355,
    "Attend": 355,
    "@billmckibb@@": 355,
    "Heav@@": 354,
    "reco@@": 354,
    "choose": 354,
    "fellow": 354,
    "encourage": 354,
    "Center": 354,
    "Spe@@": 354,
    "QR@@": 354,
    "yb@@": 354,
    "fuge@@": 354,
    "carb@@": 354,
    "cobain": 354,
    "@SheswantstheD:": 354,
    "pray@@": 353,
    "ational": 353,
    "#v@@": 353,
    "yester@@": 353,
    "hner": 353,
    "stage": 353,
    "absurd@@": 353,
    "h.": 353,
    "ells": 353,
    "bing": 353,
    "igh": 353,
    "#Macy@@": 353,
    "Dw@@": 353,
    "Bravo!": 353,
    "orders": 353,
    "Vv@@": 353,
    "STA@@": 353,
    "x's": 353,
    "@danhwoell:": 353,
    "https://t.co/v2xDaAWd\u2026": 353,
    "@COP21_News:": 353,
    "Holocaust": 353,
    "#LoveWins": 352,
    "76": 352,
    "kee@@": 352,
    "lin": 352,
    "squ@@": 352,
    "r.": 352,
    "plus": 352,
    "sexual": 352,
    "eat@@": 352,
    "xm@@": 352,
    "8E@@": 352,
    "Hh@@": 352,
    "solve": 352,
    "ING:": 352,
    "Jr": 352,
    "leaz@@": 352,
    "t4@@": 352,
    "#Secure@@": 352,
    "@\u2026": 352,
    "http://t.co/Mu8W5JkwxJ\"": 352,
    "Bernie:": 352,
    "Turqu\u00eda,": 352,
    "reunieron": 352,
    "63": 351,
    "complete": 351,
    "ou": 351,
    "Say@@": 351,
    "ston@@": 351,
    "rown@@": 351,
    "years.": 351,
    "anu@@": 351,
    "Bring": 351,
    "#PBO": 351,
    "PB@@": 351,
    "Nice": 351,
    "PX@@": 351,
    "Rub@@": 351,
    "Tells": 351,
    "O5@@": 351,
    "brid@@": 351,
    "Mm@@": 351,
    "Run@@": 351,
    "Photo": 351,
    "1j@@": 351,
    "Hor@@": 351,
    "\u2013@@": 351,
    "forces": 351,
    "YouTube": 351,
    "https://t.co/fh@@": 351,
    "PRESS": 351,
    "12:": 351,
    "Abortions": 351,
    "\"women": 351,
    "Hermanos": 351,
    "Rescate": 351,
    "Helms": 351,
    "friendly": 350,
    "thro@@": 350,
    "rick": 350,
    "numbers": 350,
    "ILL@@": 350,
    "J.": 350,
    "Slams": 350,
    "1b@@": 350,
    "Wb@@": 350,
    "WATCH:": 350,
    "Lyte": 350,
    "fool": 349,
    "sets": 349,
    "fall": 349,
    "cess": 349,
    "Carbon": 349,
    "????": 349,
    "#We@@": 349,
    "#Black@@": 349,
    "locking": 349,
    "inger": 349,
    "Spre@@": 349,
    "eddoc@@": 349,
    "eco@@": 349,
    "Cf@@": 349,
    "!:": 349,
    "urge": 349,
    "don\u2019t": 349,
    "MIGR@@": 349,
    "UT@@": 349,
    "ilitar@@": 349,
    "Pz@@": 349,
    "Sd@@": 349,
    "Esc@@": 349,
    "DeathEat@@": 349,
    "WIN": 349,
    "imagination": 349,
    "Two-@@": 349,
    "Days": 349,
    "#Washington@@": 349,
    "#FeministBlogger": 349,
    "\u062c@@": 349,
    "#Al@@": 348,
    "Liar": 348,
    "supported": 348,
    "valu@@": 348,
    "spoke": 348,
    "emin@@": 348,
    "father": 348,
    "names": 348,
    "Students": 348,
    "p4@@": 348,
    "contest@@": 348,
    "Bs@@": 348,
    "o-@@": 348,
    "jokes": 348,
    "S7@@": 348,
    "ley:": 348,
    "swea\u2026": 348,
    "@WorldBank:": 348,
    "otorga": 348,
    "&gt;HiLLARY~2016&gt;": 348,
    "@benshapiro:": 348,
    "@DailyCaller:": 348,
    "Erdogan:": 348,
    "ford": 347,
    "ivil@@": 347,
    "ET": 347,
    "offended": 347,
    "core": 347,
    "hoping": 347,
    "amo": 347,
    "MAN": 347,
    "error@@": 347,
    "remarks.": 347,
    "@real@@": 347,
    "Doesn't": 347,
    "@GOP@@": 347,
    "0X@@": 347,
    "REAL": 347,
    "trun@@": 347,
    "ICY@@": 347,
    "Unbelievable@@": 347,
    "9:": 347,
    "1c@@": 347,
    "Pesawat": 347,
    "Dingdong": 347,
    "ove": 346,
    "photo": 346,
    "ulture": 346,
    "aily": 346,
    "futu@@": 346,
    "Sil@@": 346,
    "@GinaEPA": 346,
    "now,": 346,
    "Change,": 346,
    "nobody": 346,
    "NEED": 346,
    "th.": 346,
    "Gold@@": 346,
    "Hillary2016": 346,
    "Jind@@": 346,
    "40": 346,
    "pulls": 346,
    "B8@@": 346,
    "Tuesday": 346,
    "#AINF": 346,
    "asons": 346,
    "Conferen@@": 346,
    "Commonwealth": 346,
    "Telepon": 346,
    "pret@@": 345,
    "ractic@@": 345,
    "@Amy@@": 345,
    "willing": 345,
    "Seri@@": 345,
    "Serious@@": 345,
    "kil@@": 345,
    "Charles": 345,
    "highest": 345,
    "asks": 345,
    "line@@": 345,
    "universe": 345,
    "Cm@@": 345,
    "bility": 345,
    "ington": 345,
    "haps": 345,
    "SQ@@": 345,
    "#MissUSA@@": 345,
    "dible": 345,
    "nbc@@": 345,
    "UU.": 345,
    "F8@@": 345,
    "unk@@": 345,
    "Rangel": 345,
    "Tembak": 345,
    "ence.": 344,
    "limit@@": 344,
    "room@@": 344,
    "influ@@": 344,
    "hits": 344,
    "rong": 344,
    "Rules": 344,
    "None": 344,
    "Hell": 344,
    "far!": 344,
    "debates": 344,
    "sam@@": 344,
    "\u30fb@@": 344,
    "lebrags": 344,
    "Eli@@": 344,
    "gR@@": 344,
    "worried": 344,
    "#el@@": 344,
    "rance": 344,
    "Coop@@": 344,
    "Rudy": 344,
    "\u25ba@@": 344,
    "\u3002@@": 344,
    "Paul!": 344,
    "climate-change": 344,
    "32@@": 343,
    "arian": 343,
    "@En@@": 343,
    "enny@@": 343,
    "staff@@": 343,
    "INO": 343,
    "Uw@@": 343,
    "RINO@@": 343,
    "alien": 343,
    "so?": 343,
    "verd@@": 343,
    "t5@@": 343,
    "appears": 343,
    "Air@@": 343,
    "ordin@@": 343,
    "Burton:": 343,
    "illiant": 342,
    "dered": 342,
    "Australi@@": 342,
    "grad@@": 342,
    "yea@@": 342,
    "he'd": 342,
    "citizen@@": 342,
    "cottWalker": 342,
    "Ss@@": 342,
    "#BaltimoreRi@@": 342,
    "fired.": 342,
    "9K@@": 342,
    "Hf@@": 342,
    "Saturday": 342,
    "If@@": 342,
    "usional": 342,
    "FB": 342,
    "N7@@": 342,
    "YF@@": 342,
    "Lc@@": 342,
    "Blog@@": 342,
    "#religion": 342,
    "sustainable": 342,
    "\u3093@@": 342,
    "drought": 342,
    "You,": 341,
    "bili@@": 341,
    "Hall": 341,
    "en's": 341,
    "Kid@@": 341,
    "una": 341,
    "Rape@@": 341,
    "Tou@@": 341,
    "incidents": 341,
    "zn@@": 341,
    "TY": 341,
    "insult": 341,
    "person@@": 341,
    "runn@@": 341,
    "Repor@@": 341,
    "Yd@@": 341,
    "credi@@": 341,
    "BAN": 341,
    "Rapper": 341,
    "contra": 341,
    "Victims": 341,
    "premi@@": 341,
    "Rusia,": 341,
    "#WeWontBeErased": 341,
    "after@@": 340,
    "ph": 340,
    "beh@@": 340,
    "inform@@": 340,
    "aching": 340,
    "completely": 340,
    "bye": 340,
    "say,": 340,
    "idered": 340,
    "unk": 340,
    "BUS@@": 340,
    "B2@@": 340,
    "East": 340,
    "spi@@": 340,
    "@Morning_@@": 340,
    "hv@@": 340,
    "I4@@": 340,
    "http://t.co/XxUfjTriI9": 340,
    "#OursToLose": 340,
    "earth": 339,
    "eo@@": 339,
    "ground@@": 339,
    "meant": 339,
    "#fuck@@": 339,
    "positive": 339,
    "#WhiteHouse": 339,
    "60": 339,
    "site": 339,
    "gay@@": 339,
    "America:": 339,
    "throw@@": 339,
    "#WeThePeople": 339,
    "#HillaryLiesMatter": 339,
    "berni@@": 339,
    "JA": 339,
    "Country": 339,
    "starts": 339,
    "Maj@@": 339,
    "kA@@": 339,
    "Emb@@": 339,
    "idea@@": 339,
    "s\u2019": 339,
    "@Katy@@": 339,
    "worry@@": 339,
    "itorials": 339,
    "brill@@": 339,
    "#de@@": 338,
    "wrong.": 338,
    "Everything": 338,
    "power@@": 338,
    "High@@": 338,
    "artists": 338,
    "rison@@": 338,
    "pump@@": 338,
    "yr": 338,
    "there.": 338,
    "legally": 338,
    "YA@@": 338,
    "gM@@": 338,
    "Jq@@": 338,
    "elop@@": 338,
    "Surpris@@": 338,
    "winn@@": 338,
    "x5@@": 338,
    "@thed@@": 338,
    "anta": 338,
    "@ld@@": 338,
    "\u308c@@": 338,
    "scientific": 337,
    "#bible": 337,
    "MA": 337,
    "walk": 337,
    "has@@": 337,
    "Found@@": 337,
    "easy": 337,
    "sus": 337,
    "ran": 337,
    "udi": 337,
    "#hypo@@": 337,
    "brought": 337,
    "Work@@": 337,
    "N8@@": 337,
    "mig@@": 337,
    "action.": 337,
    "mk@@": 337,
    "Terrorism": 337,
    "China's": 337,
    "ika": 337,
    "@AK@@": 337,
    "Filipino": 337,
    "licited": 337,
    "oth@@": 336,
    "James": 336,
    "aniel@@": 336,
    "Cat@@": 336,
    "season": 336,
    "Hollywood": 336,
    "hood": 336,
    "popular": 336,
    "inda@@": 336,
    "aquan@@": 336,
    "Hell@@": 336,
    "@Har@@": 336,
    "0V@@": 336,
    "Oe@@": 336,
    "PEOP@@": 336,
    "targe@@": 336,
    "ports": 336,
    "@Independ@@": 336,
    "Don\u2019t": 336,
    "Illegals": 336,
    "onewall_@@": 336,
    "terrorism.": 336,
    "resilient": 336,
    "\u3042@@": 336,
    "DP": 335,
    "glo@@": 335,
    "PRESIDENT": 335,
    "ugly": 335,
    "trend@@": 335,
    "files": 335,
    "1u@@": 335,
    ".#Trump2016": 335,
    "zv@@": 335,
    "Should@@": 335,
    "tR@@": 335,
    "T6@@": 335,
    "https://t.co/us@@": 335,
    "2007:": 335,
    "streng@@": 334,
    "work.": 334,
    "proce@@": 334,
    "middle": 334,
    "OP21": 334,
    "cold": 334,
    "WHE@@": 334,
    "misogyn@@": 334,
    "UG@@": 334,
    "199@@": 334,
    "employe@@": 334,
    "@realDonaldTrump.": 334,
    "Suprem@@": 334,
    "@Mari@@": 334,
    "Review": 334,
    "DonaldTrump@@": 334,
    "@ricky@@": 334,
    "Nation@@": 334,
    "immigration.": 334,
    "\ud83d\ude0a\ud83d\ude0a@@": 334,
    "5r@@": 334,
    "@MS@@": 334,
    "Taxpayer-Funded": 334,
    "HOT...": 334,
    "ange@@": 333,
    "prev@@": 333,
    "val": 333,
    "max@@": 333,
    "destroying": 333,
    "warm": 333,
    "@washington@@": 333,
    "yrs": 333,
    "eninist@@": 333,
    "sucks": 333,
    "Bet@@": 333,
    "@Governor@@": 333,
    "keeping": 333,
    "@tr@@": 333,
    "#dump@@": 333,
    "racial": 333,
    "irr@@": 333,
    "@Salon": 333,
    "fed": 333,
    "dk@@": 333,
    "94@@": 333,
    "fn@@": 333,
    "diseas@@": 333,
    "apprentic@@": 333,
    "1o@@": 333,
    "minute": 332,
    "duce": 332,
    "il,": 332,
    "solutions": 332,
    "s,@@": 332,
    "Actu@@": 332,
    "WHAT": 332,
    "o?": 332,
    "mas": 332,
    "Bt@@": 332,
    "WD@@": 332,
    "Lk@@": 332,
    "NBC.": 332,
    "colum@@": 332,
    "@sharethis": 332,
    "io:": 332,
    "#Se@@": 332,
    "Senator": 332,
    "eber": 332,
    "conde@@": 332,
    "@ofcaldub_zambo:": 332,
    "inistr@@": 331,
    "stick": 331,
    "attemp@@": 331,
    "citizens": 331,
    "cast@@": 331,
    "record@@": 331,
    "feminist:": 331,
    "successful": 331,
    "Wins": 331,
    "today's": 331,
    "erni@@": 331,
    "budget": 331,
    "Holl@@": 331,
    "Und@@": 331,
    "Cons@@": 331,
    "Point": 331,
    "presidenc@@": 331,
    "Gc@@": 331,
    "Sb@@": 331,
    "fundrais@@": 331,
    "ergency": 331,
    "Kochs": 331,
    "EMIN@@": 330,
    "Patriot@@": 330,
    "\ud83d\udd2b@@": 330,
    "\u3053@@": 330,
    "mart": 329,
    "oooo@@": 329,
    "lete": 329,
    "does@@": 328,
    "Ira@@": 328,
    "partment": 328,
    "oli@@": 327,
    "goti@@": 327,
    "esom@@": 326,
    "lau@@": 326,
    "\u30ea@@": 326,
    "opho@@": 325,
    "ii@@": 324,
    "OBAM@@": 324,
    "til": 324,
    "Peop@@": 324,
    "tims": 323,
    "ams:": 323,
    "\u3002": 323,
    "fol@@": 322,
    "ileg@@": 322,
    "urs@@": 321,
    "election2016": 321,
    "Wiscons@@": 321,
    "estro@@": 320,
    "\u0644": 320,
    "thin@@": 319,
    "Develop@@": 319,
    "Proble@@": 319,
    "TRU@@": 318,
    "stra@@": 317,
    "remark@@": 317,
    "Fir@@": 316,
    "intern@@": 316,
    "@daily@@": 316,
    "aining": 315,
    "fight@@": 315,
    "Youn@@": 315,
    "univers@@": 315,
    "success@@": 315,
    "PRE@@": 314,
    "@feminist@@": 314,
    "Pub@@": 314,
    "gle": 314,
    "HAHA@@": 314,
    "\ud83c\udffd@@": 314,
    "Scien@@": 314,
    "\u3089@@": 314,
    "grou@@": 313,
    "UST": 313,
    "ung": 313,
    "\u3060@@": 313,
    "solu@@": 312,
    "fuc@@": 311,
    "\ud83c\udffb@@": 311,
    "orts": 311,
    "Climate-@@": 311,
    "#Thanksgiv@@": 311,
    "CAR": 310,
    "rezHil@@": 310,
    "Muslim@@": 310,
    "ILL": 310,
    "was@@": 309,
    "Warm@@": 309,
    "lar": 309,
    "ffe@@": 308,
    "&gt;&gt;@@": 308,
    "reak@@": 308,
    "\u25c4@@": 308,
    "#Love@@": 307,
    "@se@@": 306,
    "ani": 306,
    "eel": 306,
    "\u0645": 306,
    "_E@@": 305,
    "progres@@": 304,
    "rizona": 304,
    "@AnnCoul@@": 304,
    "\u00ab@@": 304,
    "tak@@": 303,
    "pon": 302,
    "#Latinos@@": 302,
    "\u30b9@@": 302,
    "@Huffington@@": 301,
    "presid@@": 299,
    "BO": 298,
    "Blue": 298,
    "ulls": 298,
    "iller@@": 297,
    "INO@@": 297,
    "@Bre@@": 296,
    "Isra@@": 295,
    "akeAmericaGreat@@": 295,
    "ord": 294,
    "st,": 294,
    "ues": 294,
    "Post:": 294,
    "\u3055@@": 294,
    "alth@@": 293,
    "Hit@@": 293,
    "\ud83d\udcb2@@": 293,
    "\u0930@@": 293,
    "very@@": 292,
    "#Politic@@": 292,
    "\ud83d\udc4e@@": 292,
    "treme": 292,
    "Vote@@": 292,
    "\u30c8@@": 292,
    "Let@@": 291,
    "ason": 290,
    "@Greenpeac@@": 290,
    "be:": 290,
    "@we@@": 290,
    "erf@@": 289,
    "Stud@@": 289,
    "#Latin@@": 289,
    "examp@@": 289,
    "@@": 289,
    "child@@": 288,
    "ren": 288,
    "#TRUMP@@": 288,
    "\u00fa@@": 288,
    "u8@@": 288,
    "tary": 288,
    "#illegal@@": 288,
    "#NowP@@": 288,
    "ctic": 288,
    "@WORIDSTARHIPH@@": 288,
    "sustain@@": 287,
    "faul@@": 287,
    "^@@": 287,
    "candal@@": 287,
    "Crit@@": 286,
    "Ferrera": 286,
    "legal@@": 285,
    "defe@@": 285,
    "ellig@@": 285,
    "lon@@": 285,
    "rizon@@": 285,
    "Ear@@": 284,
    "Abor@@": 284,
    "nesty": 284,
    "gether": 282,
    "\u00fc": 282,
    "\u092e@@": 282,
    "ato@@": 281,
    "ument@@": 281,
    "@POTUS@@": 281,
    "\ud83c\udffb": 281,
    "ror@@": 281,
    "tation": 281,
    "@Dan@@": 280,
    "\ud83d\udca9@@": 280,
    "ween": 280,
    "Centr@@": 280,
    "liter@@": 279,
    "Sat@@": 279,
    "#He@@": 279,
    "Mexic@@": 279,
    "@World@@": 279,
    "\u0631": 279,
    "dn't": 278,
    "migran@@": 278,
    "\u2721@@": 278,
    "#Athe@@": 278,
    "\u3051@@": 278,
    "eck": 277,
    "ben@@": 277,
    "phi@@": 276,
    "ASCAR": 276,
    "\u043a@@": 276,
    "lood": 275,
    "\ud83d\ude02\ud83d\ude02\ud83d\ude02\ud83d\ude02@@": 275,
    "\ud83d\ude21": 275,
    "cred@@": 274,
    "appoint@@": 274,
    "\u00e5@@": 274,
    "\u0947": 274,
    "cla@@": 273,
    "lad": 273,
    "Amb@@": 272,
    "coul@@": 272,
    "List@@": 272,
    "uring": 272,
    "Carol@@": 272,
    "\ud83d\ude4b@@": 271,
    "\u043b@@": 271,
    "tari@@": 270,
    "Matter": 270,
    "apper": 269,
    "ywood": 269,
    "Syri@@": 268,
    "gan@@": 268,
    "amp": 268,
    "mer": 267,
    "ester@@": 267,
    "cot": 267,
    "AGA@@": 267,
    "eP@@": 267,
    "riz@@": 267,
    "C360": 267,
    "cultu@@": 266,
    "bio": 266,
    "consequ@@": 266,
    "&lt@@": 266,
    "'all": 265,
    "conc@@": 264,
    "\uff57@@": 264,
    "sing@@": 263,
    "#Cru@@": 263,
    "\u2605@@": 263,
    "post:": 263,
    "\u0647": 263,
    "sible": 262,
    "disgu@@": 262,
    "outs@@": 262,
    "\ud83d\udc49@@": 262,
    "cording": 262,
    "ablish@@": 261,
    "vail@@": 261,
    "icago": 261,
    "ilies": 261,
    "feder@@": 260,
    "\u203c@@": 260,
    "#Mexic@@": 260,
    "edshow": 260,
    "\u043c@@": 260,
    "\ud83d\ude2d": 259,
    "\u3088@@": 259,
    "Deni@@": 258,
    "turke@@": 258,
    "----@@": 258,
    "Cent@@": 257,
    "mit@@": 257,
    "tack@@": 257,
    "\ud83d\udca9": 257,
    "@ofcaldub_@@": 257,
    "invol@@": 256,
    "Fut@@": 256,
    "\ud83d\udc4c@@": 256,
    "iJ@@": 255,
    "#MS@@": 255,
    "d\u2026": 255,
    "viron@@": 254,
    "/t@@": 254,
    "anctu@@": 254,
    "Cos@@": 253,
    "@Green@@": 253,
    "-year": 253,
    "Paren@@": 253,
    "\u2757@@": 253,
    "\u2795@@": 253,
    "\u00b0@@": 252,
    "\u5973@@": 252,
    "pol": 251,
    "proper@@": 251,
    "Offici@@": 251,
    "Ton@@": 251,
    "\ud83c\udffd": 250,
    "1\u2026": 250,
    "\u0623@@": 250,
    "ablishment": 249,
    "recor@@": 249,
    "LITIC@@": 249,
    "awk@@": 249,
    "avid@@": 248,
    "atriot@@": 248,
    "#Unite@@": 248,
    "d\u00e9@@": 248,
    "\u308a@@": 248,
    "_or@@": 248,
    "#bu@@": 247,
    "emocr@@": 247,
    "@me@@": 247,
    "@think@@": 247,
    "Vag@@": 247,
    "donaldtrump": 246,
    "esti@@": 245,
    "aim@@": 244,
    "neg@@": 244,
    "REAK@@": 244,
    "Bank@@": 244,
    "\u6027@@": 243,
    "tem@@": 242,
    "ques@@": 242,
    "LIT@@": 242,
    "ocumented": 242,
    "relation@@": 241,
    "worri@@": 240,
    "call@@": 240,
    "Fla@@": 240,
    "NN": 240,
    "\u062f": 240,
    "\u30af@@": 240,
    "renew@@": 239,
    "Are@@": 239,
    "I'@@": 239,
    "Kas@@": 239,
    "conferen@@": 238,
    "ASH@@": 238,
    "tribu@@": 237,
    "ils": 237,
    "rebu@@": 237,
    "citiz@@": 237,
    "ossi@@": 236,
    "\u30a2@@": 236,
    "tim": 235,
    "imin@@": 235,
    "committ@@": 235,
    "\ud83c\udf89@@": 235,
    "\u0634@@": 235,
    "ollow@@": 234,
    "\u270c@@": 234,
    "\u30a4@@": 234,
    "owP@@": 234,
    "anks": 233,
    "ateg@@": 233,
    "opin@@": 232,
    "uters@@": 232,
    "aaaa@@": 231,
    "\u0432@@": 231,
    "estig@@": 230,
    "\u2601@@": 230,
    "#HillaryForPrison@@": 230,
    "ersec@@": 229,
    "@3@@": 229,
    "andid@@": 229,
    "inging": 229,
    "\ud83c\udf33@@": 229,
    "ington@@": 228,
    "\u56fd@@": 228,
    "E:": 227,
    "ampa@@": 227,
    "thern": 226,
    "nCoul@@": 226,
    "Flag": 225,
    "\ud83d\ude0a": 225,
    "erre@@": 225,
    "spee@@": 225,
    "\u093f@@": 225,
    "movement@@": 224,
    "\u062a": 224,
    "erful": 223,
    "expla@@": 223,
    "tom@@": 223,
    "\ud83d\ude12": 222,
    "cks": 221,
    "\u00e8@@": 221,
    "loom@@": 221,
    "\u0938@@": 221,
    "Tar@@": 220,
    "seri@@": 220,
    "#Democr@@": 220,
    "fferen@@": 220,
    "trum@@": 219,
    "@Rand@@": 219,
    "cob@@": 219,
    "YouTu@@": 219,
    "\u304d@@": 219,
    "emissi@@": 218,
    "Rising": 218,
    "ext": 217,
    "Hamp@@": 217,
    "Walker": 217,
    "itori@@": 217,
    "ouldn't": 216,
    "Trum@@": 216,
    "#y@@": 215,
    "jok@@": 215,
    "\ud83d\udc4f": 215,
    "\u2588@@": 215,
    "\u30c9@@": 215,
    "\u0635@@": 215,
    "selves": 214,
    "peop@@": 214,
    "#Elec@@": 214,
    "\ud83d\ude0f": 214,
    "PRESIDE@@": 214,
    "compan@@": 214,
    "idel@@": 213,
    "atory": 213,
    "urity": 213,
    "Lear@@": 213,
    "@marklevin@@": 213,
    "bann@@": 213,
    "enge": 213,
    "\u3000@@": 213,
    "Tal@@": 212,
    "remar@@": 212,
    "{@@": 211,
    "@gman@@": 211,
    "resili@@": 210,
    "ustr@@": 209,
    "dump@@": 209,
    "awesom@@": 208,
    "icul@@": 208,
    "I\u2019@@": 208,
    "ts!": 208,
    "FCC@@": 207,
    "@sha@@": 207,
    "indust@@": 206,
    "hili@@": 206,
    "\ud83c\uddfd": 206,
    "\u2714": 206,
    "\u304f@@": 206,
    "Cosby": 205,
    "reed@@": 205,
    "ox:": 205,
    "\u30e9@@": 205,
    "aliforni@@": 204,
    "holi@@": 204,
    "\ud83d\udcaf@@": 204,
    "Cit@@": 204,
    "\ud83c\udfc8": 204,
    "oxNews": 203,
    "#Ge@@": 203,
    "LivesMatter": 203,
    "@nat@@": 203,
    "redic@@": 203,
    "dge@@": 202,
    "\ud83c\uddfd@@": 202,
    "Unbeliev@@": 202,
    "vel": 201,
    "#Jeb@@": 201,
    "\u65e5@@": 201,
    "ilt": 200,
    "opportun@@": 200,
    "Obam@@": 200,
    "Guzman": 200,
    "\u00e3@@": 200,
    "bon": 198,
    "Hus@@": 198,
    "z\u2026": 198,
    "maj@@": 198,
    "compa@@": 197,
    "orge": 197,
    "onald": 197,
    "Turqu@@": 197,
    "edNationRising": 196,
    "\u043f@@": 196,
    "decla@@": 196,
    "\u0947@@": 196,
    "cele@@": 195,
    "\ud83d\ude0d@@": 195,
    "https://t.co/5I@@": 193,
    "tell@@": 192,
    "\u2022@@": 192,
    "\u0932@@": 192,
    "Call@@": 191,
    "ivision": 191,
    "jump@@": 190,
    "CLIM@@": 190,
    "iversity": 189,
    "imag@@": 189,
    "\u263a@@": 189,
    "Polic@@": 189,
    "\u063a@@": 189,
    "contro@@": 188,
    "wealth": 188,
    "excit@@": 188,
    "richard@@": 188,
    "Cast@@": 188,
    "EGAL@@": 188,
    "\u6c17@@": 188,
    "ten": 187,
    "#Confederate@@": 186,
    "alifornia": 186,
    "Prim@@": 186,
    "@Jeb@@": 186,
    "Stein@@": 186,
    "itut@@": 186,
    "alth": 185,
    "choo@@": 185,
    "Nig@@": 185,
    "}": 185,
    "ane:": 185,
    "tific@@": 184,
    "fla@@": 184,
    "nbc": 184,
    "oU@@": 184,
    "#Ted@@": 184,
    "ill:": 184,
    "Fig@@": 184,
    "\u0637@@": 184,
    "enter@@": 183,
    "reFired": 183,
    "yon@@": 183,
    "@AL@@": 183,
    "alti@@": 182,
    "environment": 182,
    "#Democrat@@": 182,
    "\u5927@@": 182,
    "inger@@": 181,
    "Unid@@": 181,
    "\ud83c\udffe": 181,
    "F-@@": 181,
    "immigran@@": 180,
    "Tele@@": 180,
    "itb@@": 180,
    "\u305d@@": 180,
    "arrass@@": 179,
    "years...": 179,
    "\u092a@@": 179,
    "\u0434@@": 179,
    "hn": 178,
    "Recor@@": 178,
    "\u30ec@@": 178,
    "Chr@@": 177,
    "adap@@": 177,
    "tter:": 177,
    "AA": 177,
    "LiesMatter": 177,
    "\u7537@@": 177,
    "\u30d1@@": 177,
    "evid@@": 176,
    "greta": 176,
    "@tedcru@@": 176,
    "\u094d@@": 176,
    "@Kat@@": 175,
    "zz": 175,
    "9/@@": 175,
    "bably": 175,
    "Reag@@": 175,
    "erve": 175,
    "haz@@": 175,
    "#Act@@": 175,
    "\u0130@@": 175,
    "ttest": 174,
    "]@@": 173,
    "iddle": 173,
    "ergy": 173,
    "\u0642": 173,
    "regard@@": 172,
    "anny@@": 172,
    "TON": 172,
    "VIDE@@": 172,
    "\u062e@@": 172,
    "OP21:": 172,
    "\u30c3@@": 172,
    "\ud83d\ude33": 171,
    "\ud83d\udd25@@": 171,
    "Kim@@": 170,
    "://t.@@": 170,
    "illy@@": 170,
    "McDonald@@": 170,
    "Paul:": 170,
    "limate@@": 170,
    "ouse": 169,
    "@char@@": 169,
    "incid@@": 169,
    "\u00b4@@": 169,
    "\ud83d\udc4a@@": 168,
    "\ud83d\udc4e": 168,
    "Scal@@": 168,
    "\ud83d\udc49": 168,
    "EPA": 168,
    "@Atheist@@": 167,
    "osp@@": 167,
    "ared@@": 167,
    "log": 167,
    "Donal@@": 167,
    "iots": 166,
    "feminis@@": 166,
    "aff": 166,
    "inners": 165,
    "encour@@": 165,
    "danger@@": 165,
    "tern@@": 165,
    "Threat@@": 165,
    "indsey@@": 165,
    "\u0940": 165,
    "desp@@": 164,
    "Fren@@": 164,
    "Francis@@": 164,
    "ATT@@": 164,
    "\\@@": 164,
    "imagin@@": 163,
    "trans": 163,
    "#Feel@@": 162,
    "DONAL@@": 162,
    "360": 162,
    "\u093e": 162,
    "depend@@": 161,
    "Email@@": 161,
    "chs": 161,
    "\ud83d\ude0e": 161,
    "@UNFCC@@": 161,
    "ersectional": 161,
    "feren@@": 160,
    "rentic@@": 160,
    "Put@@": 160,
    "exic@@": 160,
    "tn": 160,
    "BAR@@": 160,
    "\u00ea@@": 160,
    "\u4eba@@": 160,
    "mass@@": 159,
    "CLIN@@": 159,
    "\u2022": 159,
    "och": 158,
    "id.": 158,
    "lease": 158,
    "finan@@": 158,
    "#TedCruz@@": 158,
    "immig@@": 158,
    "#Thanksgiving@@": 158,
    "earing": 157,
    "OT": 157,
    "bau@@": 157,
    "ighs": 157,
    "\ud83d\udca5": 157,
    "\u2661": 157,
    "\u3081@@": 157,
    "OP21@@": 157,
    "Streis@@": 157,
    "#fox@@": 156,
    "annel": 156,
    "hael@@": 156,
    "tiful": 155,
    "rent": 155,
    "Amnesty": 155,
    "ons:": 155,
    "where.": 155,
    "\u0443@@": 155,
    "\u0630@@": 155,
    "cies": 154,
    "\ud83d\udc80@@": 154,
    "\ud83c\udfa4": 154,
    "\uff01@@": 153,
    "vari@@": 152,
    "locaust": 152,
    "inister": 152,
    "\u300c@@": 152,
    "@Nat@@": 151,
    "hetor@@": 151,
    "\u0431@@": 151,
    "Tues@@": 151,
    "\u3061@@": 151,
    "Vin@@": 150,
    "Amend@@": 150,
    "@seanh@@": 150,
    "Enjo@@": 149,
    "\ud83c\udf08": 149,
    "Ferre@@": 149,
    "H,": 148,
    "esus": 147,
    "@la@@": 147,
    "\u0430": 147,
    "li_@@": 147,
    "ourdough": 147,
    "\u4e3b@@": 147,
    "stem": 146,
    "Does@@": 146,
    "vid": 145,
    "mail": 145,
    "recogniz@@": 145,
    "#Stand@@": 145,
    "umbest": 144,
    "#TrumpIn@@": 144,
    "#16@@": 144,
    "ering@@": 143,
    "ageant": 143,
    "lash": 143,
    "#ActOn@@": 143,
    "\u5019@@": 143,
    "ATION@@": 142,
    "lack@@": 142,
    "/\u2026": 142,
    "@Black@@": 142,
    "ia,": 142,
    "#ElChapo@@": 142,
    "#Baltimore@@": 141,
    "conom@@": 141,
    "alia": 141,
    "bank@@": 141,
    "\ud83d\ude01": 141,
    "\ud83d\ude33@@": 141,
    "\u00bf@@": 141,
    "\ud83c\udffe@@": 141,
    "HQ:": 141,
    "\u0939@@": 141,
    "aked": 140,
    "Fol@@": 140,
    "\ud83d\udc81@@": 140,
    "THIS@@": 140,
    "Common@@": 140,
    "#Chris@@": 139,
    "\ud83d\udcaf": 139,
    "#cele@@": 139,
    "#Cruz@@": 139,
    "Global@@": 139,
    "\u0648": 139,
    "\u043e": 139,
    "flu@@": 138,
    "work:": 138,
    "ATI@@": 138,
    "@Breitbart@@": 138,
    "\u304a@@": 138,
    "\u524d@@": 138,
    "Hard@@": 137,
    "igation": 137,
    "anna": 137,
    "cnn": 137,
    "\u270a@@": 137,
    "WAT@@": 137,
    "mck@@": 137,
    "ordinated": 137,
    "perio@@": 137,
    "partic@@": 136,
    "beau@@": 136,
    "@Bernie@@": 136,
    "solutely": 136,
    "Immigration@@": 136,
    "\u652f@@": 136,
    "Phil@@": 135,
    "#bi@@": 135,
    "@Latin@@": 135,
    "BDeditorials": 135,
    "ypo@@": 134,
    "\u0924@@": 134,
    "arks": 133,
    "\ud83d\ude01@@": 133,
    "Jen@@": 133,
    "@gu@@": 132,
    "ARE@@": 132,
    "NESS@@": 132,
    "nn": 132,
    "I9": 132,
    "\u2640@@": 132,
    "absur@@": 131,
    "pend@@": 131,
    "@RealJames@@": 131,
    "#Charl@@": 131,
    "pav@@": 131,
    "Sar@@": 130,
    "http://t.co@@": 130,
    "bum@@": 130,
    "outh": 130,
    "\ud83d\udcaa@@": 130,
    "Wood@@": 130,
    "\u2642": 130,
    "ashington": 129,
    "rez@@": 129,
    "derog@@": 129,
    "sequ@@": 128,
    "`@@": 128,
    "Fore@@": 128,
    "xpay@@": 128,
    "XCX@@": 128,
    "\u30eb@@": 128,
    "\u0435": 128,
    "\u0433@@": 128,
    "umb": 127,
    "MOR@@": 127,
    "edcru@@": 127,
    "GAL": 127,
    "\ud83d\ude21@@": 127,
    "\u8981@@": 127,
    "oint@@": 126,
    "sess@@": 126,
    "\u00c9@@": 126,
    "\u0632@@": 126,
    "\u0628": 126,
    "ligi@@": 125,
    "aul": 125,
    "itional": 125,
    "@eli@@": 125,
    "\u094b@@": 125,
    "\u3048@@": 125,
    "\u0643": 125,
    "numb@@": 124,
    "Report@@": 124,
    "Trudea@@": 124,
    "://t\u2026": 124,
    "\u00e5": 124,
    "Cru@@": 123,
    "Thre@@": 123,
    "@America@@": 123,
    "cient@@": 123,
    "\u308f@@": 123,
    "arendr@@": 122,
    "angu@@": 122,
    "\ud83d\ude29@@": 122,
    "Hillar@@": 122,
    "\u0649": 122,
    "owPH_or@@": 122,
    "actly": 121,
    "@Sal@@": 121,
    "tot@@": 121,
    "\u7c73@@": 121,
    "urt": 120,
    "bal": 120,
    "\u3084@@": 120,
    "resid@@": 119,
    "undo": 119,
    "g,": 119,
    "ondon": 118,
    "Stew@@": 118,
    "Did@@": 118,
    "\u0437@@": 118,
    "Ambassad@@": 118,
    "_faulkers@@": 118,
    "eca@@": 117,
    "Mess@@": 117,
    "fri@@": 117,
    "donald@@": 117,
    "\u3069@@": 117,
    "\u7d44@@": 117,
    "#Balti@@": 116,
    "\ud83d\ude15": 116,
    "\ud83d\udc40": 116,
    "@Barack@@": 116,
    "TRI@@": 116,
    "\u30ed@@": 116,
    "Wis@@": 115,
    "\u30fb": 115,
    "\ud83d\ude12@@": 115,
    "forpresident": 115,
    "\ud83d\udcf7": 115,
    "reedom": 114,
    "\ud83d\udc4c": 114,
    "Chris@@": 114,
    "dub@@": 114,
    "#OursTo@@": 114,
    "\u0928@@": 114,
    "benef@@": 113,
    "@Life@@": 113,
    "\ud83d\ude09": 113,
    "Spi@@": 113,
    "\ud83d\ude24@@": 112,
    "\ud83d\ude1d@@": 112,
    "grat@@": 112,
    "reng@@": 111,
    "owed": 111,
    "factor": 111,
    "Bus@@": 111,
    "AMER@@": 110,
    "\u7d71@@": 110,
    "\u274c": 109,
    "ourn@@": 109,
    "\u4f1a@@": 109,
    "\ud83c\udf88@@": 109,
    "\u30e1@@": 109,
    "#Sec@@": 108,
    "stream": 108,
    "OP": 108,
    "Satur@@": 108,
    "Michel@@": 108,
    "\u0629@@": 108,
    "\u0438": 108,
    "\u092c@@": 108,
    "\u0926@@": 108,
    "\u3010@@": 108,
    "asty": 107,
    "ForPresident": 107,
    "\ud83d\ude06": 107,
    "Ald@@": 107,
    "\u3070@@": 107,
    "\u307f@@": 107,
    "\u9577@@": 107,
    "\u9818@@": 107,
    "bum": 106,
    "\u00bb@@": 106,
    "@DailyCall@@": 106,
    "BDed@@": 106,
    "Ontari@@": 106,
    "\u091c@@": 106,
    "\u092f@@": 106,
    "medic@@": 105,
    "ure.": 105,
    "\ud83d\udc4a": 105,
    "elm@@": 105,
    "ro:": 105,
    "PHX": 105,
    "#WakeUp@@": 105,
    "\uc758": 105,
    "Angr@@": 104,
    "ogyn@@": 104,
    "\ud83d\ude1c@@": 104,
    "James@@": 104,
    "Dub@@": 104,
    "Tap@@": 104,
    "#Global@@": 104,
    "\u0625@@": 104,
    "litic@@": 103,
    "#DonaldTrumpfor@@": 103,
    "\ud83d\ude11": 103,
    "\ud83d\ude37": 103,
    "Q&amp;@@": 103,
    "\u30de@@": 103,
    "essor": 103,
    "\u0636@@": 103,
    "\u0639": 103,
    "@anderson@@": 102,
    "Death@@": 102,
    "itbart@@": 102,
    "\u0447@@": 102,
    "fore": 101,
    "usion@@": 101,
    "@ClimateRe@@": 101,
    "\u52b4@@": 101,
    "gif@@": 100,
    "maint@@": 100,
    "anh@@": 100,
    "\ud83d\ude0d": 100,
    "Husse@@": 100,
    "hoenix": 100,
    "\u9078@@": 100,
    "Rod@@": 99,
    "federate@@": 99,
    "recog@@": 98,
    "Bitch@@": 98,
    "\ud83d\ude08@@": 98,
    "RUM@@": 98,
    "READ": 98,
    "\u30ad@@": 98,
    "\u751f@@": 98,
    "\u52d9@@": 98,
    "\u672c@@": 98,
    "aus@@": 97,
    "oth": 97,
    "@LifeNews@@": 97,
    "\ud83d\ude0a@@": 97,
    "\u2615@@": 97,
    "\ud83d\ude1c": 97,
    "Wed@@": 97,
    "enghazi": 97,
    "\u0928": 97,
    "HiLLARY@@": 97,
    "\u3075@@": 97,
    "BREAK@@": 96,
    "\ud83d\ude4f@@": 96,
    "ec": 96,
    "\u00ed": 96,
    "\u30d5@@": 96,
    "theist@@": 95,
    "\ud83d\ude05@@": 95,
    "\u30bf@@": 95,
    "\u308b": 95,
    "\u03b1@@": 95,
    "\u6301@@": 95,
    "&gt;HiLLARY=@@": 95,
    "bud@@": 94,
    "ference": 94,
    "eam": 94,
    "IME@@": 94,
    "oldplay's": 94,
    "\u300d@@": 94,
    "\u0941@@": 94,
    "@Nature@@": 93,
    "\ud83d\ude04": 93,
    "Lose": 93,
    "#DONAL@@": 93,
    "\ud83d\udc99@@": 93,
    "eron": 93,
    "@Libertea201@@": 93,
    "\u015f": 93,
    "\u0935@@": 93,
    "\ufffd@@": 93,
    "\u3064@@": 93,
    "\u5224@@": 93,
    "Beli@@": 92,
    "snbc": 92,
    "90s": 92,
    "\u5b98@@": 92,
    "@mark@@": 91,
    "itely": 91,
    "show:": 91,
    "#ey@@": 91,
    "\ud83d\udc3e@@": 91,
    "\u305b@@": 91,
    "WASHING@@": 91,
    "presidential@@": 90,
    "DTRUMP": 90,
    "SIDE@@": 90,
    "eav@@": 90,
    "#pj@@": 90,
    "ambassad@@": 90,
    "@nature@@": 90,
    "\u30b7@@": 90,
    "\u2600@@": 89,
    "blaz@@": 89,
    "$16@@": 89,
    "oldplay@@": 89,
    "\u30d0@@": 89,
    "bil": 89,
    "lyn": 88,
    "\u270a": 88,
    "anche@@": 88,
    "\u0436@@": 88,
    "\ud83d\udcb0@@": 88,
    "\ud83d\ude08": 88,
    "cience": 88,
    "\ud83d\ude43@@": 88,
    "#FeelTheB@@": 88,
    "\u062b@@": 88,
    "\u7684@@": 88,
    "\u6279@@": 88,
    "\ud83d\ude4f": 87,
    "\ud83d\udc80": 87,
    "\u2295@@": 87,
    "uce": 86,
    "[": 86,
    "Eh": 86,
    "Cut@@": 86,
    "exico@@": 86,
    "\ub85c": 86,
    "\u00e8": 86,
    "\u7372@@": 86,
    "#Boy@@": 85,
    "\u0917@@": 85,
    "\u0641": 85,
    "#Exx@@": 85,
    "NATION@@": 84,
    "tion2016": 84,
    "steph@@": 84,
    "niz@@": 84,
    "cion@@": 84,
    "\u884c@@": 84,
    "\u6587@@": 84,
    "@DrMart@@": 83,
    "'RE": 83,
    "\ud83d\ude4c": 83,
    "industr@@": 83,
    "#ImWith@@": 83,
    "\u3079@@": 83,
    "#cop2@@": 83,
    "\u5206@@": 83,
    "pportun@@": 82,
    "petu@@": 82,
    "LLARY": 82,
    "tico@@": 82,
    "\ud83d\udd25": 82,
    "Thin@@": 82,
    "\u0442": 82,
    "1Q": 82,
    "ilitary": 82,
    "Clint@@": 82,
    "#ALDUB@@": 82,
    "\u0633": 82,
    "Estef@@": 82,
    "ambo:": 82,
    "heal@@": 81,
    "chall@@": 81,
    "adel@@": 81,
    "Funded": 81,
    "DUB@@": 81,
    "\u0930": 81,
    "\u30a8@@": 81,
    "Alber@@": 80,
    "#Wake@@": 80,
    "\ud83d\ude29": 80,
    "uckab@@": 80,
    "orry": 80,
    "ained@@": 80,
    "\u044b@@": 80,
    "\u0621": 80,
    "\u4e8b@@": 79,
    "\u5909@@": 79,
    "Spielber@@": 79,
    "\u044c": 78,
    "onew@@": 78,
    "\u2665": 78,
    "\ud83d\udc40@@": 77,
    "\ud83d\ude00": 77,
    "\u4eca@@": 77,
    "\uff65@@": 77,
    "\u5f97": 77,
    "ration@@": 76,
    "kL": 76,
    "\ud83d\ude10": 76,
    "Wont@@": 76,
    "\ud83d\ude48@@": 76,
    "cooper": 76,
    "CH:": 76,
    "\ud83e\udd14": 76,
    "\u52d5@@": 76,
    "\uc774@@": 76,
    "\uace0@@": 76,
    "\u51fa@@": 76,
    "eder@@": 75,
    "N.": 75,
    "whelm@@": 75,
    "\u2015": 75,
    "Dawk@@": 75,
    "\ub294": 75,
    "\uff01": 75,
    "IS\u2026": 75,
    "\ud83d\udc4b": 74,
    "\ud83d\ude18": 74,
    "Letter@@": 74,
    "\u539f@@": 74,
    "\ub9c8@@": 74,
    "Appro@@": 73,
    "\u00b0": 73,
    "(I@@": 73,
    "\ud83d\ude05": 73,
    "@csp@@": 73,
    "#renew@@": 73,
    "\ud83d\ude44": 73,
    "\uff08@@": 73,
    "\ub2e4@@": 73,
    "\u03c4@@": 73,
    "\u96c6@@": 73,
    "ality:": 72,
    "eel@@": 72,
    "uspend@@": 72,
    "\u041e@@": 72,
    "akeAmerica@@": 72,
    "\ud83d\ude31": 72,
    "\u015e@@": 72,
    "\u3080@@": 72,
    "Gate": 71,
    "inton": 71,
    "\ud83d\udc38@@": 71,
    "\ud83d\ude48": 71,
    "\u00ab": 71,
    "alla": 71,
    "\uac00@@": 71,
    "\u30d2@@": 71,
    "\u6700@@": 71,
    "\u30d6@@": 71,
    "#gun@@": 70,
    "hist@@": 70,
    "ppor@@": 70,
    "\ud83c\udfff": 70,
    "\ud83c\udfb6": 70,
    "https://t.co/o4@@": 70,
    "@weknowwhat@@": 69,
    "beca@@": 69,
    "dea@@": 69,
    "@bensha@@": 69,
    "\uff09@@": 69,
    "\u8a00@@": 69,
    "\u3083@@": 69,
    "@KatiePav@@": 68,
    "\u044f": 68,
    "LEAS@@": 68,
    "'l": 68,
    "solut@@": 68,
    "\ud55c": 68,
    "https://t.co/Gv@@": 68,
    "@gmanet@@": 68,
    "bold@@": 67,
    "\u200b": 67,
    "ebl@@": 67,
    "\ud83d\ude31@@": 67,
    "\ud83d\ude06@@": 67,
    "STAR@@": 67,
    "#AL@@": 67,
    "featu@@": 67,
    "afra@@": 67,
    "\u0432": 67,
    "\uc790@@": 67,
    "Car": 66,
    "emoc@@": 66,
    "LLARY@@": 66,
    "lear": 65,
    "eninis@@": 65,
    "\u270c": 65,
    "\u2b55@@": 65,
    "\u261d@@": 65,
    "\ud83c\udccf": 65,
    "\u30d7@@": 65,
    "\uc73c@@": 65,
    "\u044c@@": 65,
    "\ud83d\udd29": 65,
    "overn@@": 64,
    "campa@@": 64,
    "Feder@@": 64,
    "liss@@": 64,
    "\ud83d\udc9e": 64,
    "\uc704@@": 64,
    "overnewz:": 64,
    "\u8005@@": 64,
    "\u30cb@@": 64,
    "\u00df@@": 64,
    "\u30aa@@": 64,
    "\uacf5@@": 64,
    "@gerfingerpok@@": 63,
    "ahoo@@": 63,
    "Fili@@": 63,
    "ClownCar": 63,
    "Puto": 63,
    "ti-@@": 63,
    "\u26a1@@": 63,
    "\u0902@@": 63,
    "\u5730@@": 63,
    "@WorldBank@@": 63,
    "\u0626@@": 63,
    "\u540d@@": 63,
    "dnpoli": 62,
    "shire": 62,
    "witter": 62,
    "\ud83d\ude18@@": 62,
    "\u0942@@": 62,
    "\u0902": 62,
    "\u00d6@@": 62,
    "\u9593@@": 62,
    "progress:": 62,
    "@AlDub@@": 62,
    "@Pol@@": 61,
    "\u0940@@": 61,
    "#Wom@@": 60,
    "@Ric@@": 60,
    "\ud83c\uddf5@@": 60,
    "@Fac@@": 60,
    "Pol": 60,
    "@COP21@@": 60,
    "\u3011@@": 60,
    "overnment": 59,
    "album@@": 59,
    "Guz@@": 59,
    "li_xc@@": 59,
    "\u094b": 59,
    "\uff1f@@": 59,
    "\uff2e@@": 59,
    "at's": 58,
    "\u274c@@": 58,
    "Approval": 58,
    "\u2665@@": 58,
    "igen@@": 58,
    "\u091a@@": 58,
    "Ki-mo@@": 58,
    "\u308d@@": 58,
    "\u30e3@@": 58,
    "\u3054@@": 58,
    "\u306d@@": 58,
    "\u3087@@": 58,
    "\u0421@@": 58,
    "contin@@": 57,
    "\ud83d\ude0e@@": 57,
    "apparen@@": 57,
    "\ud83d\ude09@@": 57,
    "PLEAS@@": 57,
    "\u2122": 57,
    "\u00ae": 57,
    "@lord@@": 57,
    "\ud83d\ude04@@": 57,
    "\u529b@@": 57,
    "\ud83d\udc8d@@": 57,
    "elines": 56,
    "#OhH@@": 56,
    "^": 56,
    "\u270b@@": 56,
    "inion:": 56,
    "\ud83d\ude14": 56,
    "Resc@@": 56,
    "\u0638@@": 56,
    "\u300d": 56,
    "\u0905@@": 56,
    "\u591a@@": 56,
    "\u27a8": 55,
    "\u20ac@@": 55,
    "Unidos": 55,
    "ashing@@": 55,
    "Rebu@@": 55,
    "rethis": 55,
    "#PJNE@@": 55,
    "\uac00": 55,
    "\u30cd@@": 55,
    "th_@@": 54,
    "Franc@@": 54,
    "complet@@": 54,
    "Parenth@@": 54,
    "\ud83d\udc48": 54,
    "\ud83d\udc4b@@": 54,
    "enda": 54,
    "\u79c1@@": 54,
    "\u4e2d@@": 54,
    "\u3044": 54,
    "\u26a0@@": 54,
    "\u8b70@@": 54,
    "\u30b8@@": 54,
    "\u0439@@": 54,
    "\u30e5@@": 54,
    "\u7de8@@": 54,
    "illNo": 53,
    "'re": 53,
    "CHAN@@": 53,
    "\u6708@@": 53,
    "\u30bb@@": 53,
    "\uad6c@@": 53,
    "Rang@@": 53,
    "@alden@@": 53,
    "\u958b@@": 53,
    "\u2763": 53,
    "\ud83d\ude45@@": 52,
    "\ud83d\udc85@@": 52,
    "idas": 52,
    "anw@@": 52,
    "tren@@": 52,
    "\u27a1": 52,
    "\ub2c8@@": 52,
    "\ud83d\udcf9": 52,
    "\u5316@@": 52,
    "\uff28@@": 52,
    "\uff2b@@": 52,
    "\u9b3c@@": 52,
    "sust@@": 51,
    "#Tea@@": 51,
    "\ud83d\udeab@@": 51,
    "#Celebr@@": 51,
    "\ud83d\udcb0": 51,
    "Franco@@": 51,
    "#Il@@": 51,
    "\ud83d\udd2b": 51,
    "ONAL@@": 51,
    "edNation@@": 51,
    "\u512a@@": 51,
    "_EUROP@@": 51,
    "\u3058@@": 51,
    "\u03b9@@": 51,
    "\u30ab@@": 51,
    "\u30e0@@": 51,
    "evelop@@": 51,
    "\u30b4@@": 51,
    "AWARE@@": 51,
    "Bravo@@": 50,
    "\ud83d\ude03@@": 50,
    "\u2588": 50,
    "\u2606@@": 50,
    "Modi@@": 50,
    "\u30c7@@": 50,
    "\u8fd1@@": 50,
    "\ud83d\ude34": 49,
    "beha@@": 49,
    "Taxpay@@": 49,
    "\ud83c\udf89": 49,
    "@Nolte@@": 49,
    "\ud83d\udd2a@@": 49,
    "\ud83d\udd34": 49,
    "NC:": 49,
    "\u7121@@": 49,
    "\u00e7": 49,
    "\u3078@@": 49,
    "\u305a@@": 49,
    "\u3011": 49,
    "\u30c9": 49,
    "\uc5f0@@": 49,
    "\ud83d\ude03": 48,
    "\ud83d\udcaa": 48,
    "\ud83d\udc96": 48,
    "\u2192@@": 48,
    "\ub9ac@@": 48,
    "@FactsOn@@": 48,
    "\ud83d\ude43": 48,
    "\u6642@@": 48,
    "\uc744": 48,
    "LET@@": 47,
    "\u30c4@@": 47,
    "\ud83c\udf4a@@": 47,
    "@Morning@@": 47,
    "forni@@": 47,
    "\u270f@@": 47,
    "\ud83d\ude00@@": 47,
    "REAT": 47,
    "\ub3c4": 47,
    "\u767a@@": 47,
    "\u03c9@@": 47,
    "\u8aad@@": 47,
    "\ud83d\udca4": 47,
    "\ud83d\ude0f@@": 46,
    "\ud83d\ude28@@": 46,
    "\ud83d\ude1d": 46,
    "\u044e@@": 46,
    "\ud83c\udfc0": 46,
    "\u30b3@@": 46,
    "\uc9c0@@": 46,
    "\ud83c\udf10": 46,
    "\u4e16@@": 46,
    "\ud83d\udc9b@@": 46,
    "@DRUD@@": 46,
    "\u0938": 46,
    "\uff05@@": 46,
    "\ud83d\ude24": 45,
    "\ud83d\ude4a@@": 45,
    "\ud83d\udc83@@": 45,
    "ourd@@": 45,
    "\ud83d\ude32": 45,
    "Immig@@": 45,
    "https://t.co/Of@@": 45,
    "\u0921@@": 45,
    "\uc5d0@@": 45,
    "\ub9ac": 45,
    "\ud83c\udf10@@": 45,
    "\u03ba@@": 45,
    "\u061f": 45,
    "\ud83d\udc36": 45,
    "\u30e7@@": 45,
    "#HillaryForP@@": 45,
    "\ud83d\udc2f": 45,
    "\u5408@@": 45,
    "\u53cd@@": 45,
    ">": 44,
    "uffal@@": 44,
    "\ud83d\ude16": 44,
    "\ud83d\udcb5@@": 44,
    "@ric@@": 44,
    "\uc5ec@@": 44,
    "\u0410@@": 44,
    "\u80fd@@": 44,
    "\u6e29@@": 44,
    "\u0941": 44,
    "\u0913@@": 44,
    "\u00cd@@": 43,
    "Eat@@": 43,
    "Pes@@": 43,
    "\ud83d\udc96@@": 43,
    "(VIDEO@@": 43,
    "\u092d@@": 43,
    "\u4e00@@": 43,
    "\u0446@@": 43,
    "\uc5d0": 43,
    "@eliselabott@@": 43,
    "\u00c1@@": 43,
    "\u044f@@": 43,
    "\u0448@@": 43,
    "\u0443": 43,
    "\ud83c\udfc7@@": 43,
    "\ud83d\udc11@@": 43,
    "\ud83d\udc25@@": 43,
    "\ud83d\udca2@@": 43,
    "\ud83c\udfb2": 43,
    "\ud83d\udcd3@@": 43,
    "\ud83d\uddfd": 42,
    "#TrumpIs@@": 42,
    "\ud83d\udc95": 42,
    "remi@@": 42,
    "rom": 42,
    "awaren@@": 42,
    "uzg@@": 42,
    "\u00f4@@": 42,
    "\u0439": 42,
    "\u4e0a@@": 42,
    "@COP21_@@": 42,
    "\u03b5@@": 42,
    "\u30df@@": 42,
    "\u30e6@@": 42,
    "\u518d@@": 42,
    "ethical": 41,
    "please@@": 41,
    "bra": 41,
    "LLI@@": 41,
    "\u2606": 41,
    "\ud83d\udce3@@": 41,
    "\u03c3@@": 41,
    "\u8a18@@": 41,
    "\u601d@@": 41,
    "\u4f53@@": 41,
    "\u50ac@@": 41,
    "\u6c0f@@": 41,
    "\u6307@@": 41,
    "htt@@": 40,
    "\ud83d\udc9a@@": 40,
    "\u00da@@": 40,
    "C0": 40,
    "@Nol@@": 40,
    "\u6bba@@": 40,
    "\uace0": 40,
    "\u5b50@@": 40,
    "\u00eb": 40,
    "\u00ef@@": 40,
    "\u5e74@@": 40,
    "\u30c0@@": 40,
    "\u6b21@@": 40,
    "\u53ef@@": 40,
    "\ub140": 40,
    "\u30d8@@": 40,
    "HOT@@": 39,
    "\ud83c\udde8@@": 39,
    "xJ": 39,
    "ForP@@": 39,
    "\ud83d\ude2c": 39,
    "LING": 39,
    "\ud83c\udf85@@": 39,
    "\u00a9": 39,
    "\u0449@@": 39,
    "\u0636": 39,
    "\ud83e\udd84@@": 39,
    "\u06cc@@": 39,
    "\u30ec": 39,
    "\u90a3@@": 39,
    "\u0561@@": 39,
    "\u0d4d@@": 39,
    "\ud83c\uddf7@@": 38,
    "\u00f8@@": 38,
    "polog@@": 38,
    "Jin@@": 38,
    "\u2728@@": 38,
    "\u2744@@": 38,
    "caller": 38,
    "\uff5e@@": 38,
    "\u03bc@@": 38,
    "\uc774": 38,
    "erfingerpok@@": 38,
    "\u6765@@": 38,
    "\u6253@@": 38,
    "\u9a5a@@": 38,
    "\u2764": 37,
    "\u00c9": 37,
    "Tab@@": 37,
    "\ud83d\udcf0": 37,
    "\u263a": 37,
    "provo@@": 37,
    "elber@@": 37,
    "acific": 37,
    "@marcoru@@": 37,
    "\ud83d\udc76": 37,
    "\ud83d\udeba": 37,
    "\ud83d\udc5f": 37,
    "\u5b9f@@": 37,
    "\u5411@@": 37,
    "\u3072@@": 37,
    "\ud558@@": 37,
    "#Feminist@@": 36,
    "\ud83d\udc99": 36,
    "\u266b": 36,
    "usin@@": 36,
    "\ud83c\udf86@@": 36,
    "\u5225@@": 36,
    "\u7269@@": 36,
    "\u4f5c@@": 36,
    "\u89e3@@": 36,
    "\u5168@@": 36,
    "\u03b7@@": 36,
    "\u30cf@@": 36,
    "\u5728@@": 36,
    "\u043c": 36,
    "\uc131@@": 36,
    "\uc2e0@@": 36,
    "\uc2dc@@": 36,
    "\u53cb": 36,
    "\u5bb6@@": 36,
    "hoto": 35,
    "\u200b@@": 35,
    "\ud83d\udc48@@": 35,
    "\ud83d\ude16@@": 35,
    "\u0924": 35,
    "\uc544@@": 35,
    "\uae30": 35,
    "\u0391@@": 35,
    "\u03c1@@": 35,
    "\u30d3@@": 35,
    "\u30c6@@": 35,
    "\u30fc": 35,
    "\u5bfe@@": 35,
[...]
